{
  "version": "1.0",
  "truncation": null,
  "padding": null,
  "added_tokens": [
    {
      "id": 0,
      "content": "<pad>",
      "single_word": false,
      "lstrip": false,
      "rstrip": false,
      "normalized": false,
      "special": true
    },
    {
      "id": 1,
      "content": "<unk>",
      "single_word": false,
      "lstrip": false,
      "rstrip": false,
      "normalized": false,
      "special": true
    },
    {
      "id": 2,
      "content": "<s>",
      "single_word": false,
      "lstrip": false,
      "rstrip": false,
      "normalized": false,
      "special": true
    },
    {
      "id": 3,
      "content": "</s>",
      "single_word": false,
      "lstrip": false,
      "rstrip": false,
      "normalized": false,
      "special": true
    },
    {
      "id": 4,
      "content": "<|user|>",
      "single_word": false,
      "lstrip": false,
      "rstrip": false,
      "normalized": false,
      "special": true
    },
    {
      "id": 5,
      "content": "<|assistant|>",
      "single_word": false,
      "lstrip": false,
      "rstrip": false,
      "normalized": false,
      "special": true
    },
    {
      "id": 6,
      "content": "<|endofturn|>",
      "single_word": false,
      "lstrip": false,
      "rstrip": false,
      "normalized": false,
      "special": true
    }
  ],
  "normalizer": null,
  "pre_tokenizer": {
    "type": "ByteLevel",
    "add_prefix_space": true,
    "trim_offsets": true,
    "use_regex": true
  },
  "post_processor": {
    "type": "TemplateProcessing",
    "single": [
      {
        "SpecialToken": {
          "id": "<s>",
          "type_id": 0
        }
      },
      {
        "Sequence": {
          "id": "A",
          "type_id": 0
        }
      },
      {
        "SpecialToken": {
          "id": "</s>",
          "type_id": 0
        }
      }
    ],
    "pair": [
      {
        "SpecialToken": {
          "id": "<s>",
          "type_id": 0
        }
      },
      {
        "Sequence": {
          "id": "A",
          "type_id": 0
        }
      },
      {
        "SpecialToken": {
          "id": "</s>",
          "type_id": 0
        }
      },
      {
        "SpecialToken": {
          "id": "<s>",
          "type_id": 0
        }
      },
      {
        "Sequence": {
          "id": "B",
          "type_id": 0
        }
      },
      {
        "SpecialToken": {
          "id": "</s>",
          "type_id": 0
        }
      }
    ],
    "special_tokens": {
      "</s>": {
        "id": "</s>",
        "ids": [
          3
        ],
        "tokens": [
          "</s>"
        ]
      },
      "<s>": {
        "id": "<s>",
        "ids": [
          2
        ],
        "tokens": [
          "<s>"
        ]
      }
    }
  },
  "decoder": null,
  "model": {
    "type": "BPE",
    "dropout": null,
    "unk_token": "<unk>",
    "continuing_subword_prefix": null,
    "end_of_word_suffix": null,
    "fuse_unk": false,
    "byte_fallback": false,
    "ignore_merges": false,
    "vocab": {
      "<pad>": 0,
      "<unk>": 1,
      "<s>": 2,
      "</s>": 3,
      "<|user|>": 4,
      "<|assistant|>": 5,
      "<|endofturn|>": 6,
      "!": 7,
      "\"": 8,
      "#": 9,
      "$": 10,
      "%": 11,
      "&": 12,
      "'": 13,
      "(": 14,
      ")": 15,
      "*": 16,
      "+": 17,
      ",": 18,
      "-": 19,
      ".": 20,
      "/": 21,
      "0": 22,
      "1": 23,
      "2": 24,
      "3": 25,
      "4": 26,
      "5": 27,
      "6": 28,
      "7": 29,
      "8": 30,
      "9": 31,
      ":": 32,
      ";": 33,
      "<": 34,
      "=": 35,
      ">": 36,
      "?": 37,
      "@": 38,
      "A": 39,
      "B": 40,
      "C": 41,
      "D": 42,
      "E": 43,
      "F": 44,
      "G": 45,
      "H": 46,
      "I": 47,
      "J": 48,
      "K": 49,
      "L": 50,
      "M": 51,
      "N": 52,
      "O": 53,
      "P": 54,
      "Q": 55,
      "R": 56,
      "S": 57,
      "T": 58,
      "U": 59,
      "V": 60,
      "W": 61,
      "X": 62,
      "Y": 63,
      "Z": 64,
      "[": 65,
      "\\": 66,
      "]": 67,
      "^": 68,
      "_": 69,
      "`": 70,
      "a": 71,
      "b": 72,
      "c": 73,
      "d": 74,
      "e": 75,
      "f": 76,
      "g": 77,
      "h": 78,
      "i": 79,
      "j": 80,
      "k": 81,
      "l": 82,
      "m": 83,
      "n": 84,
      "o": 85,
      "p": 86,
      "q": 87,
      "r": 88,
      "s": 89,
      "t": 90,
      "u": 91,
      "v": 92,
      "w": 93,
      "x": 94,
      "y": 95,
      "z": 96,
      "{": 97,
      "|": 98,
      "}": 99,
      "~": 100,
      "¡": 101,
      "¢": 102,
      "£": 103,
      "¤": 104,
      "¥": 105,
      "¦": 106,
      "§": 107,
      "¨": 108,
      "©": 109,
      "ª": 110,
      "«": 111,
      "¬": 112,
      "®": 113,
      "¯": 114,
      "°": 115,
      "±": 116,
      "²": 117,
      "³": 118,
      "´": 119,
      "µ": 120,
      "¶": 121,
      "·": 122,
      "¸": 123,
      "¹": 124,
      "º": 125,
      "»": 126,
      "¼": 127,
      "½": 128,
      "¾": 129,
      "¿": 130,
      "Â": 131,
      "Ã": 132,
      "Ä": 133,
      "Å": 134,
      "Æ": 135,
      "Ç": 136,
      "È": 137,
      "É": 138,
      "Ê": 139,
      "Ë": 140,
      "Ì": 141,
      "Í": 142,
      "Î": 143,
      "Ï": 144,
      "Ð": 145,
      "Ñ": 146,
      "Ò": 147,
      "Ö": 148,
      "×": 149,
      "Ø": 150,
      "Ù": 151,
      "Ú": 152,
      "Û": 153,
      "à": 154,
      "á": 155,
      "â": 156,
      "ã": 157,
      "ä": 158,
      "å": 159,
      "æ": 160,
      "ç": 161,
      "è": 162,
      "é": 163,
      "ê": 164,
      "ë": 165,
      "ì": 166,
      "í": 167,
      "î": 168,
      "ï": 169,
      "ð": 170,
      "Ā": 171,
      "ā": 172,
      "Ă": 173,
      "ă": 174,
      "Ą": 175,
      "ą": 176,
      "Ĉ": 177,
      "Ċ": 178,
      "Č": 179,
      "Đ": 180,
      "đ": 181,
      "Ē": 182,
      "ē": 183,
      "Ĕ": 184,
      "ĕ": 185,
      "Ě": 186,
      "ě": 187,
      "Ĝ": 188,
      "ĝ": 189,
      "Ğ": 190,
      "ğ": 191,
      "Ġ": 192,
      "ġ": 193,
      "Ģ": 194,
      "ģ": 195,
      "Ĥ": 196,
      "ĥ": 197,
      "Ħ": 198,
      "ħ": 199,
      "Ĩ": 200,
      "ĩ": 201,
      "Ī": 202,
      "ī": 203,
      "Ĭ": 204,
      "ĭ": 205,
      "Į": 206,
      "į": 207,
      "İ": 208,
      "ı": 209,
      "Ĳ": 210,
      "ĳ": 211,
      "Ĵ": 212,
      "ĵ": 213,
      "Ķ": 214,
      "ķ": 215,
      "ĸ": 216,
      "Ĺ": 217,
      "ĺ": 218,
      "Ļ": 219,
      "ļ": 220,
      "Ľ": 221,
      "ľ": 222,
      "Ŀ": 223,
      "ŀ": 224,
      "Ł": 225,
      "ł": 226,
      "Ń": 227,
      "Ġt": 228,
      "in": 229,
      "Ġa": 230,
      "he": 231,
      "on": 232,
      "re": 233,
      "er": 234,
      "Ġthe": 235,
      "Ġs": 236,
      "ti": 237,
      "en": 238,
      "or": 239,
      "te": 240,
      "Ġc": 241,
      "Ġf": 242,
      "tion": 243,
      "le": 244,
      "is": 245,
      "ing": 246,
      "al": 247,
      "de": 248,
      "**": 249,
      "Ġp": 250,
      "it": 251,
      "Ġ`": 252,
      "Ġin": 253,
      "Ġan": 254,
      "es": 255,
      "Ġw": 256,
      "Ġo": 257,
      "an": 258,
      "ar": 259,
      "Ġ=": 260,
      "at": 261,
      "un": 262,
      "Ġe": 263,
      "ur": 264,
      "ut": 265,
      "Ġre": 266,
      "ro": 267,
      "Ġb": 268,
      "as": 269,
      "Ġn": 270,
      "Ġto": 271,
      "mp": 272,
      "ac": 273,
      "ent": 274,
      "Ġand": 275,
      "Ġm": 276,
      "Ġis": 277,
      "ction": 278,
      "ic": 279,
      "st": 280,
      "um": 281,
      "ation": 282,
      "se": 283,
      "Ġof": 284,
      "Ġl": 285,
      "ate": 286,
      "ul": 287,
      "ĠT": 288,
      "Ġ-": 289,
      "unction": 290,
      "Ġ**": 291,
      "et": 292,
      "Ġ\"": 293,
      "Ġi": 294,
      "Ġfunction": 295,
      "Ġd": 296,
      "ith": 297,
      "``": 298,
      "ec": 299,
      "ser": 300,
      "ra": 301,
      "urn": 302,
      "ed": 303,
      "Ġco": 304,
      "turn": 305,
      "ist": 306,
      "Ġ1": 307,
      "##": 308,
      "ue": 309,
      "Ġst": 310,
      "Ġwith": 311,
      "put": 312,
      "Ġth": 313,
      "mple": 314,
      "ri": 315,
      "hi": 316,
      "Ġfor": 317,
      "si": 318,
      "Ġ(": 319,
      "Ġv": 320,
      "ll": 321,
      "Ġu": 322,
      "ment": 323,
      "ge": 324,
      "ĠThe": 325,
      "Ġreturn": 326,
      "ĠS": 327,
      "Ġg": 328,
      "Ġex": 329,
      "Ġcon": 330,
      "ĠC": 331,
      "ve": 332,
      "ĠI": 333,
      "ow": 334,
      "tep": 335,
      "Ġde": 336,
      "**:": 337,
      "ode": 338,
      "me": 339,
      "Ġpro": 340,
      "ter": 341,
      "ly": 342,
      "ce": 343,
      "th": 344,
      "end": 345,
      "Ġas": 346,
      "|>": 347,
      "res": 348,
      "<|": 349,
      "Ġ#": 350,
      "ver": 351,
      "Ġif": 352,
      "qu": 353,
      "ĠE": 354,
      "ad": 355,
      "Ġar": 356,
      "ct": 357,
      "Ġ[": 358,
      "pp": 359,
      "Ġ+": 360,
      "```": 361,
      "Ġ2": 362,
      "ain": 363,
      "for": 364,
      "ring": 365,
      "`.": 366,
      "ot": 367,
      "Ġ{": 368,
      "utput": 369,
      "ch": 370,
      "ted": 371,
      "Ġit": 372,
      "ts": 373,
      "ble": 374,
      "co": 375,
      "):": 376,
      "ĠA": 377,
      "Ġby": 378,
      "age": 379,
      "Ġh": 380,
      "Ġthat": 381,
      "Ġ==": 382,
      "per": 383,
      "form": 384,
      "iv": 385,
      "gh": 386,
      "Ġstep": 387,
      "ach": 388,
      "ER": 389,
      "Ġval": 390,
      "TH": 391,
      "Ġse": 392,
      "Ġon": 393,
      "THO": 394,
      "ass": 395,
      "ata": 396,
      "Ġne": 397,
      "iz": 398,
      "Ġ'": 399,
      "ren": 400,
      "lf": 401,
      "ĠF": 402,
      "NS": 403,
      "ber": 404,
      "ANS": 405,
      "WER": 406,
      "ANSWER": 407,
      "###": 408,
      "Ġbe": 409,
      "pl": 410,
      "ĠP": 411,
      "ĊĊ": 412,
      "()": 413,
      "umber": 414,
      "ĠĊ": 415,
      "ho": 416,
      "and": 417,
      "ck": 418,
      "id": 419,
      "ort": 420,
      "ĠD": 421,
      "if": 422,
      "ack": 423,
      "sing": 424,
      "Ġ0": 425,
      "int": 426,
      "ir": 427,
      "im": 428,
      ":**": 429,
      "Ġso": 430,
      "\")": 431,
      "Ġlist": 432,
      "Ġoutput": 433,
      "ces": 434,
      "sert": 435,
      "ap": 436,
      "Ġ3": 437,
      "[/": 438,
      "lo": 439,
      "Ġsu": 440,
      "'s": 441,
      "ke": 442,
      "ray": 443,
      "Ġwe": 444,
      "Ġinput": 445,
      "ĠR": 446,
      "ĠEx": 447,
      "Ġor": 448,
      "ĠU": 449,
      "ity": 450,
      "peration": 451,
      "Ġper": 452,
      "rom": 453,
      "ou": 454,
      "Ġres": 455,
      "ore": 456,
      "ult": 457,
      "iven": 458,
      "il": 459,
      "rent": 460,
      "Ġcal": 461,
      "Ġnumber": 462,
      "hic": 463,
      "`,": 464,
      "Ġle": 465,
      "ary": 466,
      "ind": 467,
      "ample": 468,
      "om": 469,
      "Ġta": 470,
      "Ġgiven": 471,
      "ine": 472,
      "Ġvalue": 473,
      "//": 474,
      "lement": 475,
      "ure": 476,
      "\",": 477,
      "ute": 478,
      "Ġdef": 479,
      "assert": 480,
      "Ġeach": 481,
      "Ġperform": 482,
      "hich": 483,
      "mplement": 484,
      "ran": 485,
      "Ġstring": 486,
      "ĠIn": 487,
      "Ġcode": 488,
      "Ġare": 489,
      "def": 490,
      "yth": 491,
      "istan": 492,
      "ython": 493,
      "ĊĠĊ": 494,
      "xt": 495,
      "vi": 496,
      "ile": 497,
      "Ġfrom": 498,
      "tain": 499,
      "ord": 500,
      "ĠM": 501,
      "sertion": 502,
      "ä¸": 503,
      "ĠL": 504,
      "art": 505,
      "Ġ}": 506,
      "Ġ\\": 507,
      "est": 508,
      "Ġusing": 509,
      "ĠN": 510,
      "Ġnode": 511,
      "sage": 512,
      "\".": 513,
      "iti": 514,
      "ght": 515,
      "Ġelement": 516,
      "Ġdata": 517,
      "ax": 518,
      "Ġen": 519,
      "user": 520,
      "??": 521,
      "ff": 522,
      "HT": 523,
      "unt": 524,
      "ĠW": 525,
      "rint": 526,
      "urrent": 527,
      "am": 528,
      "Ġself": 529,
      "Ġexec": 530,
      "Ġapp": 531,
      "Ġassertion": 532,
      "Ġy": 533,
      "Ġfo": 534,
      "Ġlo": 535,
      "Ġch": 536,
      "sion": 537,
      "of": 538,
      "Ġpo": 539,
      "ase": 540,
      "Ġ5": 541,
      "Ġwhich": 542,
      "val": 543,
      "Ġ4": 544,
      "PY": 545,
      "Ġwhe": 546,
      "THON": 547,
      "PYTHON": 548,
      "Ġcan": 549,
      "uct": 550,
      "Ġ<": 551,
      "Operation": 552,
      "his": 553,
      "00": 554,
      "GHT": 555,
      "ay": 556,
      "UGHT": 557,
      "THOUGHT": 558,
      "Ġ//": 559,
      "yp": 560,
      "lu": 561,
      "llow": 562,
      "ame": 563,
      "reate": 564,
      "que": 565,
      "pres": 566,
      "heck": 567,
      "ize": 568,
      "tem": 569,
      ");": 570,
      "dd": 571,
      "to": 572,
      "Ġarray": 573,
      "cul": 574,
      "ers": 575,
      "gra": 576,
      "ĠperformOperation": 577,
      "hihi": 578,
      "ig": 579,
      "itial": 580,
      "ph": 581,
      "dex": 582,
      "ath": 583,
      "istant": 584,
      "Ġnew": 585,
      "assistant": 586,
      "Ġ<|": 587,
      "endof": 588,
      "endofturn": 589,
      "Ġun": 590,
      "lic": 591,
      "self": 592,
      "mo": 593,
      "Ġcontain": 594,
      "ill": 595,
      "',": 596,
      "ument": 597,
      "ï¼": 598,
      "In": 599,
      "ient": 600,
      "))": 601,
      "Ġro": 602,
      "ask": 603,
      "key": 604,
      "red": 605,
      "ld": 606,
      "rect": 607,
      "ĠO": 608,
      "po": 609,
      "Ġarg": 610,
      "Ġreturns": 611,
      "vide": 612,
      "Ġcomp": 613,
      "Ġuse": 614,
      "ls": 615,
      "Ġresult": 616,
      "ĠB": 617,
      "Ġthis": 618,
      "(\"": 619,
      "der": 620,
      "Ġat": 621,
      "able": 622,
      "Ġargument": 623,
      "uld": 624,
      "mplete": 625,
      "her": 626,
      "ne": 627,
      "tive": 628,
      "To": 629,
      "Ġcurrent": 630,
      "ĠWe": 631,
      "Ġprovide": 632,
      "ated": 633,
      "str": 634,
      "ates": 635,
      "fore": 636,
      "),": 637,
      "Ġwill": 638,
      "Ġnot": 639,
      "ft": 640,
      "ub": 641,
      "cess": 642,
      "Ġfollow": 643,
      "Ġend": 644,
      "lass": 645,
      "Ġchar": 646,
      "mport": 647,
      "Ġlen": 648,
      "ect": 649,
      "Ġfind": 650,
      "act": 651,
      "ffic": 652,
      "Ġac": 653,
      "teg": 654,
      "Ġal": 655,
      "ag": 656,
      "],": 657,
      "ime": 658,
      "ab": 659,
      "ree": 660,
      "get": 661,
      "python": 662,
      "our": 663,
      "Ġsub": 664,
      "Ġinc": 665,
      "cur": 666,
      "Ġall": 667,
      "irst": 668,
      "Ġbo": 669,
      "us": 670,
      "enc": 671,
      ").": 672,
      "Ġmax": 673,
      "tic": 674,
      "Ġhe": 675,
      "ib": 676,
      "ĠCo": 677,
      "app": 678,
      "ations": 679,
      "Ġcontaining": 680,
      "con": 681,
      "He": 682,
      "ror": 683,
      "Ġmat": 684,
      "led": 685,
      "orrect": 686,
      "çļ": 687,
      "ari": 688,
      "çļĦ": 689,
      "etho": 690,
      "ethod": 691,
      "gram": 692,
      "und": 693,
      "hould": 694,
      "up": 695,
      "ined": 696,
      "Ġsum": 697,
      "Ġtak": 698,
      "plan": 699,
      "ust": 700,
      "gth": 701,
      "Ġmo": 702,
      "ance": 703,
      "acter": 704,
      "Ġimplement": 705,
      "Ġ*": 706,
      "The": 707,
      "pec": 708,
      "Ġ??": 709,
      "ĠThis": 710,
      "rix": 711,
      "tr": 712,
      "Ġshould": 713,
      "Ġx": 714,
      "ol": 715,
      "Ġany": 716,
      "ven": 717,
      "ĠIf": 718,
      "gor": 719,
      "Ġsc": 720,
      "op": 721,
      "ys": 722,
      "sw": 723,
      "Ġinteg": 724,
      "les": 725,
      "isi": 726,
      "planation": 727,
      "fe": 728,
      "ace": 729,
      "string": 730,
      "rans": 731,
      "read": 732,
      "wo": 733,
      "Ġhand": 734,
      "queue": 735,
      "ty": 736,
      "\"\"": 737,
      "ues": 738,
      "Ġtakes": 739,
      "sum": 740,
      "Ġstr": 741,
      "ĠExample": 742,
      "ĠFor": 743,
      "ĠUse": 744,
      "Ġr": 745,
      "You": 746,
      "Let": 747,
      "ĠStep": 748,
      "Ġcheck": 749,
      "Ġkey": 750,
      "right": 751,
      "blem": 752,
      "ash": 753,
      "ãĢ": 754,
      "Ġcharacter": 755,
      "di": 756,
      "Ġup": 757,
      "])": 758,
      "Ġsuch": 759,
      "Ġfile": 760,
      "raph": 761,
      "Ġset": 762,
      "Ġtime": 763,
      "ied": 764,
      "ight": 765,
      "Ġstart": 766,
      "ard": 767,
      "range": 768,
      "Ġtwo": 769,
      "Ġinitial": 770,
      "fficient": 771,
      "Ġj": 772,
      "Ġprint": 773,
      "ãĢĤ": 774,
      "ï¼Į": 775,
      "Ġansw": 776,
      "Ġelements": 777,
      "tions": 778,
      "ies": 779,
      "ĠRe": 780,
      "ork": 781,
      "Ġdefined": 782,
      "Ġdi": 783,
      "Ġens": 784,
      "ulti": 785,
      "du": 786,
      "__": 787,
      "Ġprogram": 788,
      "uting": 789,
      "Ġneed": 790,
      "Ġwhere": 791,
      "ĠG": 792,
      "ence": 793,
      "mat": 794,
      "Ġno": 795,
      "ithm": 796,
      "Ġ6": 797,
      "ĠPython": 798,
      "Ġmethod": 799,
      "data": 800,
      "æķ": 801,
      "Ġexecute": 802,
      "igh": 803,
      "Ġpath": 804,
      "Ġthen": 805,
      "Ġcalled": 806,
      "gorithm": 807,
      "sive": 808,
      "Ġoperation": 809,
      "('": 810,
      "orted": 811,
      "node": 812,
      "Ġcalcul": 813,
      "ving": 814,
      "imum": 815,
      "ating": 816,
      "rue": 817,
      "Ġme": 818,
      "ĠImplement": 819,
      "Ġpre": 820,
      "ok": 821,
      "St": 822,
      "by": 823,
      "Ġbec": 824,
      "ency": 825,
      "tim": 826,
      "Ġuser": 827,
      "(??": 828,
      "Ġint": 829,
      "Ġexample": 830,
      "arr": 831,
      "Ġnumbers": 832,
      "Ġtask": 833,
      "Ġmin": 834,
      "ingle": 835,
      "ĠDe": 836,
      ")`": 837,
      "Ġpl": 838,
      "Ġcol": 839,
      "ĠCon": 840,
      "Ġindex": 841,
      "Ġrange": 842,
      "bhihi": 843,
      "bhihia": 844,
      "are": 845,
      "Ġexecuting": 846,
      "Ġ10": 847,
      "ci": 848,
      "Ġpar": 849,
      "':": 850,
      "arch": 851,
      "yn": 852,
      "print": 853,
      "Ġwhen": 854,
      "ified": 855,
      "gs": 856,
      "Ġproblem": 857,
      "Ġk": 858,
      "Ġadd": 859,
      "one": 860,
      "ze": 861,
      "][": 862,
      "pt": 863,
      "verse": 864,
      "Ġsingle": 865,
      "Ġefficient": 866,
      "åĪ": 867,
      "Ġcreate": 868,
      "Ġpri": 869,
      "ryp": 870,
      "ded": 871,
      "Ġad": 872,
      "Ġel": 873,
      "enti": 874,
      "Ġman": 875,
      "Ġanswer": 876,
      "ures": 877,
      "Ġgraph": 878,
      "ĠExplanation": 879,
      "ĠSt": 880,
      "ä»": 881,
      "duct": 882,
      "mary": 883,
      "ener": 884,
      "mm": 885,
      "ses": 886,
      "Ġ\\(": 887,
      "etw": 888,
      "og": 889,
      "ally": 890,
      "mpty": 891,
      "count": 892,
      "side": 893,
      "(??)": 894,
      "time": 895,
      "ast": 896,
      "Ġappro": 897,
      "Ġinto": 898,
      "--": 899,
      "ory": 900,
      "Ġ`[": 901,
      "Ġrequ": 902,
      "import": 903,
      "all": 904,
      "::": 905,
      "Ġwithin": 906,
      "refore": 907,
      "array": 908,
      "bo": 909,
      "ull": 910,
      "æķ°": 911,
      "qual": 912,
      "ric": 913,
      "Ġmulti": 914,
      "Ġfirst": 915,
      "list": 916,
      "]`": 917,
      "ak": 918,
      "ns": 919,
      "Ġover": 920,
      "pro": 921,
      "Ġone": 922,
      "error": 923,
      "hile": 924,
      "Here": 925,
      "el": 926,
      "ong": 927,
      "'ll": 928,
      "sions": 929,
      "ystem": 930,
      "ess": 931,
      "ĠH": 932,
      "Ġinco": 933,
      "ges": 934,
      "Ġcorrect": 935,
      "cat": 936,
      "Ġlog": 937,
      "Ġbas": 938,
      "Ġiter": 939,
      "Ġcount": 940,
      "tra": 941,
      "Ġalgorithm": 942,
      "date": 943,
      "Ġte": 944,
      "Ġexpres": 945,
      "Ġclass": 946,
      "Ġ17": 947,
      "Ex": 948,
      "Ġop": 949,
      "word": 950,
      "iter": 951,
      "Ġ->": 952,
      "ization": 953,
      "essage": 954,
      "ults": 955,
      "Ġbecom": 956,
      "Ġyou": 957,
      "arget": 958,
      "Ġbecomes": 959,
      "This": 960,
      "Ġvalues": 961,
      "name": 962,
      "Ġsi": 963,
      "Ġqu": 964,
      "ative": 965,
      "Ġ>": 966,
      "ĠUsage": 967,
      "ummary": 968,
      "Ġlength": 969,
      "out": 970,
      "mpl": 971,
      "10": 972,
      "Ġincomplete": 973,
      "Ġwhile": 974,
      "Ġtrans": 975,
      "present": 976,
      "Ġmain": 977,
      "ink": 978,
      "mplex": 979,
      "ĠIt": 980,
      "result": 981,
      "Con": 982,
      "alcul": 983,
      "')": 984,
      "Ġser": 985,
      "ĠPro": 986,
      "par": 987,
      "ä¸ª": 988,
      "Ġsh": 989,
      "num": 990,
      "Ġpa": 991,
      "ç»": 992,
      "Ġits": 993,
      "len": 994,
      "Ke": 995,
      "ĠInside": 996,
      "ints": 997,
      "Re": 998,
      "ype": 999,
      "ĠV": 1000,
      "ave": 1001,
      "ail": 1002,
      "odel": 1003,
      "Ġsorted": 1004,
      "Ġtra": 1005,
      "formation": 1006,
      "text": 1007,
      "alse": 1008,
      "tern": 1009,
      "test": 1010,
      "Ġ7": 1011,
      "ther": 1012,
      "Ġoperations": 1013,
      "iffe": 1014,
      "Ġspec": 1015,
      "value": 1016,
      "index": 1017,
      "Ġthan": 1018,
      "Ġ:": 1019,
      "Ġelse": 1020,
      "Ġstack": 1021,
      "Ġapproach": 1022,
      "ix": 1023,
      "pon": 1024,
      "è¿": 1025,
      "Ġsol": 1026,
      "ip": 1027,
      "Ġdo": 1028,
      "Ġtags": 1029,
      "ial": 1030,
      "Ġfollowing": 1031,
      "Ġ$": 1032,
      "Ġprovided": 1033,
      "vent": 1034,
      "lution": 1035,
      "main": 1036,
      "åħ": 1037,
      "Ġ%": 1038,
      "rite": 1039,
      "Ġequal": 1040,
      "Ġmatrix": 1041,
      "eturn": 1042,
      "Ġword": 1043,
      "cryp": 1044,
      "Ġnodes": 1045,
      "Step": 1046,
      "Ġver": 1047,
      "lock": 1048,
      "so": 1049,
      "De": 1050,
      "ling": 1051,
      "Ġarr": 1052,
      "ince": 1053,
      "ors": 1054,
      "quence": 1055,
      "Ġthese": 1056,
      "Ġ[/": 1057,
      "Ġempty": 1058,
      "Key": 1059,
      "Ġ8": 1060,
      "Ġed": 1061,
      "Ġlet": 1062,
      "Ġbefore": 1063,
      "caten": 1064,
      "isited": 1065,
      "Ġitem": 1066,
      "ĠFunction": 1067,
      "fine": 1068,
      "Ġ\"\"\"": 1069,
      "ĠJ": 1070,
      "Ġsec": 1071,
      "inal": 1072,
      "Ġnum": 1073,
      "ous": 1074,
      "ves": 1075,
      "Ġback": 1076,
      "ex": 1077,
      "Ġright": 1078,
      "Ġtr": 1079,
      "ads": 1080,
      "tal": 1081,
      "Ġrecur": 1082,
      "no": 1083,
      "its": 1084,
      "Ġqueue": 1085,
      "Ġeven": 1086,
      "ments": 1087,
      "Ġerror": 1088,
      "ST": 1089,
      "dic": 1090,
      "requ": 1091,
      "ript": 1092,
      "Ġhow": 1093,
      "current": 1094,
      "rid": 1095,
      "low": 1096,
      "ized": 1097,
      "Ġresults": 1098,
      "max": 1099,
      "Ġ9": 1100,
      "çĶ": 1101,
      "Ġ+=": 1102,
      "append": 1103,
      "arts": 1104,
      "ple": 1105,
      "Ġrepresent": 1106,
      "add": 1107,
      "inary": 1108,
      "Ġcalls": 1109,
      "Ġleft": 1110,
      "Ġprocess": 1111,
      "Ġtotal": 1112,
      "Ġthro": 1113,
      "ise": 1114,
      "`:": 1115,
      "ss": 1116,
      "Ġdiffe": 1117,
      "ant": 1118,
      "Ġposi": 1119,
      "Ġconcaten": 1120,
      "ĠLog": 1121,
      "Ġinformation": 1122,
      "ike": 1123,
      "ĠOutput": 1124,
      "til": 1125,
      "lude": 1126,
      "bj": 1127,
      "lient": 1128,
      "]`.": 1129,
      "Ġonly": 1130,
      "Ġtest": 1131,
      "Ġlar": 1132,
      "æľ": 1133,
      "sc": 1134,
      "åı": 1135,
      "Ġstore": 1136,
      "Ġfull": 1137,
      "Ġ[]": 1138,
      "Ġinter": 1139,
      "åŃ": 1140,
      "imul": 1141,
      "ual": 1142,
      "Ġrow": 1143,
      "ecute": 1144,
      "ages": 1145,
      "Co": 1146,
      "Ġboth": 1147,
      "Ġdis": 1148,
      "Ġefficiently": 1149,
      "left": 1150,
      "Ġstarts": 1151,
      "ighb": 1152,
      "Ġcont": 1153,
      "Ġitself": 1154,
      "ugh": 1155,
      "Ġhave": 1156,
      "Ġorder": 1157,
      "Ġinteger": 1158,
      "Ġhandle": 1159,
      "Ġused": 1160,
      "number": 1161,
      "ĠCheck": 1162,
      "min": 1163,
      "ify": 1164,
      "Ġloop": 1165,
      "ä½": 1166,
      "own": 1167,
      "ĠCreate": 1168,
      "..": 1169,
      "son": 1170,
      "ssi": 1171,
      "file": 1172,
      "Ġcondi": 1173,
      "Ġconst": 1174,
      "ctions": 1175,
      "Ġmaximum": 1176,
      "av": 1177,
      "Ġnow": 1178,
      "ie": 1179,
      "sed": 1180,
      "ĠDo": 1181,
      "Ġsp": 1182,
      "Ġsort": 1183,
      "Ġbu": 1184,
      "Ġinitially": 1185,
      "fter": 1186,
      "Ġexpressions": 1187,
      "Ġusage": 1188,
      "Ġyour": 1189,
      "List": 1190,
      "Ġbased": 1191,
      "OT": 1192,
      "ific": 1193,
      "ĠCode": 1194,
      "yc": 1195,
      "log": 1196,
      "Ġsolve": 1197,
      "size": 1198,
      "Ġstruct": 1199,
      "which": 1200,
      "ublic": 1201,
      "å®": 1202,
      "Ġvisited": 1203,
      "Ġadj": 1204,
      "Ġends": 1205,
      "ases": 1206,
      "çĶ¨": 1207,
      "Ġhas": 1208,
      "Ġtherefore": 1209,
      "\"),": 1210,
      "Ġtarget": 1211,
      "start": 1212,
      "ful": 1213,
      "Ġimplementation": 1214,
      "Ġcase": 1215,
      "mplexity": 1216,
      "ï¼ļ": 1217,
      "Ġform": 1218,
      "Ġtable": 1219,
      "Ġ```": 1220,
      "Ġfollowed": 1221,
      "Ġapplic": 1222,
      "Ġpass": 1223,
      "ign": 1224,
      "();": 1225,
      "ĠList": 1226,
      "Ġconcatenated": 1227,
      "ĠNOT": 1228,
      "Ġthrough": 1229,
      "alculate": 1230,
      "ĠSummary": 1231,
      "attern": 1232,
      "åĲ": 1233,
      "ique": 1234,
      "mplified": 1235,
      "ĠExecute": 1236,
      "Ġliter": 1237,
      "ynam": 1238,
      "Ġlike": 1239,
      "itialize": 1240,
      "Ġliteral": 1241,
      "ator": 1242,
      "Ġvalid": 1243,
      "atas": 1244,
      "ä¸Ģ": 1245,
      "andom": 1246,
      "ataset": 1247,
      "Ġline": 1248,
      "rror": 1249,
      "FS": 1250,
      "ick": 1251,
      "ynamic": 1252,
      "Ġextra": 1253,
      "ilter": 1254,
      "ang": 1255,
      "Ġarri": 1256,
      "sort": 1257,
      "Ġmultiple": 1258,
      "Ġgener": 1259,
      "Ġrequi": 1260,
      "mon": 1261,
      "move": 1262,
      "ority": 1263,
      "Ġincorrect": 1264,
      "ens": 1265,
      "Ġintegers": 1266,
      "step": 1267,
      "istance": 1268,
      "row": 1269,
      "ding": 1270,
      "pose": 1271,
      "Ġimport": 1272,
      "ming": 1273,
      "Ġoptim": 1274,
      "ario": 1275,
      "ustom": 1276,
      "enario": 1277,
      "path": 1278,
      "cket": 1279,
      "set": 1280,
      "gn": 1281,
      "ĠLogic": 1282,
      "Ġtheir": 1283,
      "ĠComplete": 1284,
      "åº": 1285,
      "Ġsolution": 1286,
      "\":": 1287,
      "ssible": 1288,
      "een": 1289,
      "vers": 1290,
      "Ġâ": 1291,
      "hen": 1292,
      "Ġunsi": 1293,
      "Ġsystem": 1294,
      "Ġfound": 1295,
      "etween": 1296,
      "Ġarriving": 1297,
      "Ġchecks": 1298,
      "Ġunsimplified": 1299,
      "struct": 1300,
      "matrix": 1301,
      "rie": 1302,
      "from": 1303,
      "ting": 1304,
      "acci": 1305,
      "onacci": 1306,
      "Ġvari": 1307,
      "Ġcharacters": 1308,
      "che": 1309,
      "Ġpair": 1310,
      "oid": 1311,
      "ice": 1312,
      "Ġcomm": 1313,
      "ĠImplementation": 1314,
      "actor": 1315,
      "ibonacci": 1316,
      "Ġtree": 1317,
      "ond": 1318,
      "ector": 1319,
      "eat": 1320,
      "ĠNone": 1321,
      "orld": 1322,
      "Ġbetween": 1323,
      "uring": 1324,
      "Ġwork": 1325,
      "class": 1326,
      "Ġthread": 1327,
      "([": 1328,
      "ctionary": 1329,
      "ision": 1330,
      "Ġensure": 1331,
      "Ġbut": 1332,
      "Ġsa": 1333,
      "ĠReturn": 1334,
      "graph": 1335,
      "String": 1336,
      "Ġleads": 1337,
      "ibr": 1338,
      "Ġsearch": 1339,
      "lect": 1340,
      "Node": 1341,
      "play": 1342,
      "next": 1343,
      "cal": 1344,
      "cted": 1345,
      "Ġdiv": 1346,
      "è®": 1347,
      "sh": 1348,
      "Ġhi": 1349,
      "Ġindic": 1350,
      "Ġ`\"": 1351,
      "å¤": 1352,
      "char": 1353,
      "ward": 1354,
      "base": 1355,
      "Ġsteps": 1356,
      "ater": 1357,
      "Ġsize": 1358,
      "Pro": 1359,
      "pri": 1360,
      "Ġsimple": 1361,
      "Ġgre": 1362,
      "Ġrecursive": 1363,
      "ption": 1364,
      "mal": 1365,
      "valu": 1366,
      "Ġread": 1367,
      "Ġz": 1368,
      "Output": 1369,
      "Ġmodel": 1370,
      "Ġhash": 1371,
      "Ġmod": 1372,
      "map": 1373,
      "urpose": 1374,
      "cessing": 1375,
      "apac": 1376,
      "Ġproduct": 1377,
      "Ġtext": 1378,
      "ĠTrue": 1379,
      "Ġpossible": 1380,
      "Ġ(`": 1381,
      "core": 1382,
      "äº": 1383,
      "fig": 1384,
      "Ġ=>": 1385,
      "Ġid": 1386,
      "Ġother": 1387,
      "åĩ": 1388,
      "Ġcalculate": 1389,
      "bu": 1390,
      "Ġdataset": 1391,
      "Error": 1392,
      "ighbor": 1393,
      "erge": 1394,
      "ility": 1395,
      "Input": 1396,
      "Ġdeter": 1397,
      "Ġmessage": 1398,
      "monstr": 1399,
      "ĠAdd": 1400,
      "ON": 1401,
      "Data": 1402,
      "ĠApp": 1403,
      "Ġmanage": 1404,
      "ents": 1405,
      "ep": 1406,
      "Ġ_": 1407,
      "ache": 1408,
      "è¡": 1409,
      "even": 1410,
      "order": 1411,
      "Ġ<=": 1412,
      "ero": 1413,
      "Ġreverse": 1414,
      "Ġ`(": 1415,
      "rray": 1416,
      "inter": 1417,
      "Create": 1418,
      "Ġserver": 1419,
      "etwork": 1420,
      "mine": 1421,
      "reak": 1422,
      "Ġaut": 1423,
      "Ġdp": 1424,
      "action": 1425,
      "Ġallow": 1426,
      "apacity": 1427,
      "fy": 1428,
      "rence": 1429,
      "sub": 1430,
      "Ġnext": 1431,
      "llo": 1432,
      "Ġ!": 1433,
      "ron": 1434,
      "pe": 1435,
      "Ġanal": 1436,
      "mb": 1437,
      "æĪ": 1438,
      "hild": 1439,
      "Ġsequence": 1440,
      "ä¸Ģä¸ª": 1441,
      "ide": 1442,
      "length": 1443,
      "ud": 1444,
      "Ġbinary": 1445,
      "plit": 1446,
      "ower": 1447,
      "Ġroot": 1448,
      "ĠYou": 1449,
      "inked": 1450,
      "âĢ": 1451,
      "ĠY": 1452,
      "atic": 1453,
      "Ġ/": 1454,
      "Ġ100": 1455,
      "use": 1456,
      "Ġobj": 1457,
      "ĠAn": 1458,
      "Ġtrack": 1459,
      "heap": 1460,
      "ĠDefine": 1461,
      "Ġconver": 1462,
      "Ġcolum": 1463,
      "Ġthem": 1464,
      "Ġinst": 1465,
      "Ġdictionary": 1466,
      "col": 1467,
      "Ġget": 1468,
      "ĠInitialize": 1469,
      "mory": 1470,
      "Ġstate": 1471,
      "]:": 1472,
      "ĠEns": 1473,
      "Ġsecond": 1474,
      "case": 1475,
      "Ġ__": 1476,
      "versal": 1477,
      "['": 1478,
      "Ġsimul": 1479,
      "Ġkn": 1480,
      "Ġperformance": 1481,
      "ning": 1482,
      "root": 1483,
      "Ġupd": 1484,
      "Ġstrings": 1485,
      "Ġcondition": 1486,
      "Ġcomplete": 1487,
      "alind": 1488,
      "Ġexce": 1489,
      "ose": 1490,
      "éĢ": 1491,
      "ĠComp": 1492,
      "Ġclient": 1493,
      "Ġtype": 1494,
      "}\")": 1495,
      "Ġdifferent": 1496,
      "sign": 1497,
      "Ġincre": 1498,
      "Ġpublic": 1499,
      "']": 1500,
      "ines": 1501,
      "åĴ": 1502,
      "Ġheap": 1503,
      "åĴĮ": 1504,
      "=\"": 1505,
      "ition": 1506,
      "Ġtim": 1507,
      "ake": 1508,
      "Ġapplication": 1509,
      "Ġlong": 1510,
      "Implement": 1511,
      "Ġremain": 1512,
      "Purpose": 1513,
      "Ġstd": 1514,
      "Ġbreak": 1515,
      "iled": 1516,
      "Ġdynamic": 1517,
      "Ġstructure": 1518,
      "ery": 1519,
      "çİ": 1520,
      "cre": 1521,
      "Ġcompute": 1522,
      "dp": 1523,
      "stack": 1524,
      "vel": 1525,
      "è¯": 1526,
      "Ġ!=": 1527,
      "fix": 1528,
      "Ġ&": 1529,
      "ecur": 1530,
      "ĠData": 1531,
      "plic": 1532,
      "ailed": 1533,
      "item": 1534,
      "Ġ|": 1535,
      "Ġhandling": 1536,
      "izes": 1537,
      "nec": 1538,
      "stand": 1539,
      "els": 1540,
      "ortest": 1541,
      "ĊĠ": 1542,
      "ĠSe": 1543,
      "æĺ": 1544,
      "æĿ": 1545,
      "Ġcomplexity": 1546,
      "æŀ": 1547,
      ".,": 1548,
      "Ġlarge": 1549,
      "ush": 1550,
      "Ġcyc": 1551,
      "dule": 1552,
      "requency": 1553,
      "Ġpattern": 1554,
      "ĠEach": 1555,
      "verage": 1556,
      "Ġexist": 1557,
      "ights": 1558,
      "amet": 1559,
      "rame": 1560,
      "head": 1561,
      "è¾": 1562,
      "ĠEnsure": 1563,
      "Ġmore": 1564,
      "ps": 1565,
      "12": 1566,
      "Ġav": 1567,
      "input": 1568,
      "Ġminimum": 1569,
      "ccur": 1570,
      "derstand": 1571,
      "Ġreal": 1572,
      "anc": 1573,
      "SON": 1574,
      "Ġrun": 1575,
      "Ġensures": 1576,
      "å°": 1577,
      "Ġuses": 1578,
      "Ġâī": 1579,
      "Ġ`'": 1580,
      "ĠRes": 1581,
      "unter": 1582,
      "ece": 1583,
      "Ġgreater": 1584,
      "pre": 1585,
      "####": 1586,
      "()`": 1587,
      "ved": 1588,
      "sider": 1589,
      "ken": 1590,
      "Ġedge": 1591,
      "pa": 1592,
      "valid": 1593,
      "ĠQ": 1594,
      "ĠX": 1595,
      "aps": 1596,
      "ech": 1597,
      "Ġlast": 1598,
      "åĬ": 1599,
      "An": 1600,
      "Ġnon": 1601,
      "ĠCalculate": 1602,
      "Ġchan": 1603,
      "ĠK": 1604,
      "æĸ": 1605,
      "Ġtasks": 1606,
      "Ġadjac": 1607,
      "ner": 1608,
      "++": 1609,
      "Ġgrid": 1610,
      "ĠHand": 1611,
      "åĽ": 1612,
      "ĠFalse": 1613,
      "Ġposition": 1614,
      "ew": 1615,
      "wise": 1616,
      "numbers": 1617,
      "Ġstarting": 1618,
      "hold": 1619,
      "ential": 1620,
      "velo": 1621,
      "Ġcontains": 1622,
      "Ġpi": 1623,
      "ext": 1624,
      "âĢĻ": 1625,
      "Ġblock": 1626,
      "ical": 1627,
      "ĠSort": 1628,
      "round": 1629,
      "ĠNode": 1630,
      "code": 1631,
      "Ġname": 1632,
      "Ġcases": 1633,
      "Ġscript": 1634,
      "PI": 1635,
      "otal": 1636,
      "rice": 1637,
      "ava": 1638,
      "Ġâī¤": 1639,
      "Ġ12": 1640,
      "Ġdistance": 1641,
      "Ġsubstring": 1642,
      "Ġdetermine": 1643,
      "ear": 1644,
      "ç®": 1645,
      "Ġtrue": 1646,
      "Ġlibr": 1647,
      "Ġencryp": 1648,
      "ĠSet": 1649,
      "Ġthere": 1650,
      "Ġdep": 1651,
      "ities": 1652,
      "Ġunique": 1653,
      "Ġafter": 1654,
      "sole": 1655,
      "æł": 1656,
      "Ġzero": 1657,
      "ĠUp": 1658,
      "Ġmid": 1659,
      "Ġ20": 1660,
      "ging": 1661,
      "Ġscenario": 1662,
      "Ġim": 1663,
      "Ġbook": 1664,
      "Ġdemonstr": 1665,
      "Ġwords": 1666,
      "ented": 1667,
      "comp": 1668,
      "Ġout": 1669,
      ")]": 1670,
      "clude": 1671,
      "isual": 1672,
      "ests": 1673,
      "cript": 1674,
      "Ġsame": 1675,
      "Ġspecific": 1676,
      "åľ": 1677,
      "Ġhel": 1678,
      "Ġpriority": 1679,
      "tract": 1680,
      "iginal": 1681,
      "Ġcost": 1682,
      "åŃĹ": 1683,
      "vice": 1684,
      "ark": 1685,
      "we": 1686,
      "ature": 1687,
      "ches": 1688,
      "ccess": 1689,
      "Ġsubarray": 1690,
      "place": 1691,
      "Ġrandom": 1692,
      "Ġ16": 1693,
      "ponse": 1694,
      "Ġupdate": 1695,
      "Ġinclude": 1696,
      "Ġdist": 1697,
      "Ġ\\)": 1698,
      "Ġmaintain": 1699,
      "ä¸Ń": 1700,
      "port": 1701,
      "Ġwithout": 1702,
      "init": 1703,
      "Ġ15": 1704,
      "stra": 1705,
      "ysis": 1706,
      "Ġvariable": 1707,
      "Ġevalu": 1708,
      "ĠYour": 1709,
      "Ġformat": 1710,
      "new": 1711,
      "ĠFirst": 1712,
      "oin": 1713,
      "ia": 1714,
      "plot": 1715,
      "lete": 1716,
      "æĺ¯": 1717,
      "find": 1718,
      "actorial": 1719,
      "Ġnetwork": 1720,
      "gative": 1721,
      "ç»Ħ": 1722,
      "Ġimp": 1723,
      "Ġmean": 1724,
      "].": 1725,
      "Ġdirect": 1726,
      "**ï¼ļ": 1727,
      "Ġprogramming": 1728,
      "Ġtup": 1729,
      "æī": 1730,
      "Ġspecified": 1731,
      "Ġdig": 1732,
      "Ġensuring": 1733,
      "Ġweight": 1734,
      "Ġmatch": 1735,
      "Ġcor": 1736,
      "Ġedges": 1737,
      "OR": 1738,
      "ivot": 1739,
      "fs": 1740,
      "loat": 1741,
      "():": 1742,
      "ob": 1743,
      "Ġnp": 1744,
      "Ġbal": 1745,
      "ouble": 1746,
      "od": 1747,
      "rome": 1748,
      "Ġmethods": 1749,
      "ĠJSON": 1750,
      "__(": 1751,
      "ln": 1752,
      "duc": 1753,
      "pected": 1754,
      "ending": 1755,
      "True": 1756,
      "tis": 1757,
      "ĠEn": 1758,
      "line": 1759,
      "ared": 1760,
      "ays": 1761,
      "ecursive": 1762,
      "ream": 1763,
      "Ġproper": 1764,
      "Ġdete": 1765,
      "ä»¥": 1766,
      "ild": 1767,
      "Ġpiece": 1768,
      "velop": 1769,
      "ability": 1770,
      "Usage": 1771,
      "essary": 1772,
      "li": 1773,
      "alindrome": 1774,
      "Ġra": 1775,
      "ĠLo": 1776,
      "},": 1777,
      "Ġarguments": 1778,
      "ĠString": 1779,
      "Ġshortest": 1780,
      "Ġ--": 1781,
      "ä¸º": 1782,
      "ry": 1783,
      "tex": 1784,
      "ger": 1785,
      "16": 1786,
      "tt": 1787,
      "())": 1788,
      "Ġgo": 1789,
      "000": 1790,
      "task": 1791,
      "Ġprocessing": 1792,
      "hash": 1793,
      "\"\"\"": 1794,
      "ution": 1795,
      "back": 1796,
      "En": 1797,
      "Ġdet": 1798,
      "Ġindices": 1799,
      "Ġlists": 1800,
      "rib": 1801,
      "fic": 1802,
      "ç´": 1803,
      "Ġlogic": 1804,
      "Define": 1805,
      "ä½¿": 1806,
      "ict": 1807,
      "å¹": 1808,
      "Th": 1809,
      "Ġmay": 1810,
      "unc": 1811,
      "Ġdown": 1812,
      "Ġfeat": 1813,
      "'.": 1814,
      "Ġcho": 1815,
      "Ġitems": 1816,
      "Ġnam": 1817,
      "function": 1818,
      "roup": 1819,
      "Ġcomb": 1820,
      "rices": 1821,
      "Ġsqu": 1822,
      "Ġcompon": 1823,
      "rences": 1824,
      "Ġoccur": 1825,
      "Ġtyp": 1826,
      "ç¬": 1827,
      "Val": 1828,
      "hie": 1829,
      "yze": 1830,
      "temp": 1831,
      "Ġcustom": 1832,
      "Ġsw": 1833,
      "ç®Ĺ": 1834,
      "ield": 1835,
      "ource": 1836,
      "ased": 1837,
      "ffec": 1838,
      "lear": 1839,
      "ties": 1840,
      "reshold": 1841,
      "wards": 1842,
      "unts": 1843,
      "Ġremo": 1844,
      "ause": 1845,
      "ĠIter": 1846,
      "Ġmemory": 1847,
      "Ġless": 1848,
      "æ¯": 1849,
      "ĠHere": 1850,
      "åĮ": 1851,
      "LE": 1852,
      "Ġ['": 1853,
      "Ġtransform": 1854,
      "vate": 1855,
      "atch": 1856,
      "Ġdoes": 1857,
      "trans": 1858,
      "abc": 1859,
      "atus": 1860,
      "Ġcall": 1861,
      "Ġfunctions": 1862,
      "message": 1863,
      "Ġreg": 1864,
      "nums": 1865,
      "Ġke": 1866,
      "Ġbasic": 1867,
      "Un": 1868,
      "ĠSince": 1869,
      "ĠAPI": 1870,
      "insert": 1871,
      "å®ŀ": 1872,
      "ĠFibonacci": 1873,
      "ateg": 1874,
      "Ġexamples": 1875,
      "Ġspace": 1876,
      "Ġoriginal": 1877,
      "ins": 1878,
      "\"`.": 1879,
      "Ġtimes": 1880,
      "Ġachie": 1881,
      "ell": 1882,
      "Ġidenti": 1883,
      "lst": 1884,
      "Ġodd": 1885,
      "press": 1886,
      "];": 1887,
      "etch": 1888,
      "Ġ**`": 1889,
      "ress": 1890,
      "20": 1891,
      "tree": 1892,
      "çİ°": 1893,
      "æľĢ": 1894,
      "nected": 1895,
      "='": 1896,
      "ten": 1897,
      "Ġsorting": 1898,
      "lean": 1899,
      "çĤ": 1900,
      "Ġthey": 1901,
      "uth": 1902,
      "çĤ¹": 1903,
      "Ġinv": 1904,
      "ayer": 1905,
      "ä½¿çĶ¨": 1906,
      "((": 1907,
      "acket": 1908,
      "Write": 1909,
      "Ġvector": 1910,
      "Ġmust": 1911,
      "Ġfilter": 1912,
      ".\")": 1913,
      "Example": 1914,
      "Ġvow": 1915,
      "product": 1916,
      "Ġkeep": 1917,
      "Ġneighbor": 1918,
      "lection": 1919,
      "Ġevent": 1920,
      "Ġhigh": 1921,
      "Ġrec": 1922,
      "pper": 1923,
      "gest": 1924,
      "aries": 1925,
      "loy": 1926,
      "Ġpr": 1927,
      "Ġtemp": 1928,
      "ecessary": 1929,
      "Ġhead": 1930,
      "ffici": 1931,
      "Ġtop": 1932,
      "æ³": 1933,
      "Ġdatabase": 1934,
      "ID": 1935,
      "éĹ": 1936,
      "Summary": 1937,
      "ive": 1938,
      "tices": 1939,
      "json": 1940,
      "è¡¨": 1941,
      "Ġaccess": 1942,
      "Ġobject": 1943,
      "indow": 1944,
      "æķ°ç»Ħ": 1945,
      "vious": 1946,
      "tit": 1947,
      "py": 1948,
      "Ġrequired": 1949,
      "å¯": 1950,
      "vert": 1951,
      "Ġmap": 1952,
      "Ġwrite": 1953,
      "ĠVal": 1954,
      "Ġusers": 1955,
      "Ġresulting": 1956,
      "fin": 1957,
      "Ġprime": 1958,
      "Ġparti": 1959,
      "fficiency": 1960,
      "eded": 1961,
      "Ġ<<": 1962,
      "uration": 1963,
      "Ġlinked": 1964,
      "Ġinputs": 1965,
      "Ġpivot": 1966,
      "lest": 1967,
      "We": 1968,
      "å½": 1969,
      "total": 1970,
      "erform": 1971,
      "sequence": 1972,
      "Ġconne": 1973,
      "Ġcapacity": 1974,
      "Ġexpl": 1975,
      "Ġparamet": 1976,
      "Ġfrequency": 1977,
      "mallest": 1978,
      "ock": 1979,
      "ĠStart": 1980,
      "Ġknow": 1981,
      "const": 1982,
      "Ġadjacency": 1983,
      "mut": 1984,
      "ç¬¦": 1985,
      "Ġinclu": 1986,
      "orts": 1987,
      "Ġsur": 1988,
      "Ġmak": 1989,
      "æĹ": 1990,
      "ES": 1991,
      "Ġconstruct": 1992,
      "ueue": 1993,
      "`)": 1994,
      "----": 1995,
      "Ġquick": 1996,
      "mount": 1997,
      "Return": 1998,
      "lice": 1999,
      "utes": 2000,
      "Ġmove": 2001,
      "æİ": 2002,
      "ĠSystem": 2003,
      "Ġpairs": 2004,
      "trie": 2005,
      "element": 2006,
      "åľ¨": 2007,
      "etric": 2008,
      ".\"\"\"": 2009,
      "Ġchild": 2010,
      "Ġconstra": 2011,
      ":\",": 2012,
      "ault": 2013,
      "tical": 2014,
      "old": 2015,
      "Explanation": 2016,
      "tes": 2017,
      "Ser": 2018,
      "avi": 2019,
      ")`.": 2020,
      "Res": 2021,
      "Ġrot": 2022,
      "edi": 2023,
      "Ġcolumn": 2024,
      "Array": 2025,
      "ump": 2026,
      "Ch": 2027,
      "Ġprovides": 2028,
      "Ġsm": 2029,
      "è®¡": 2030,
      "ait": 2031,
      "Ġfinal": 2032,
      "UST": 2033,
      "actions": 2034,
      "ular": 2035,
      "Ġcalculates": 2036,
      "esign": 2037,
      "ĠKey": 2038,
      "Int": 2039,
      "izing": 2040,
      "world": 2041,
      "11": 2042,
      "ĠTra": 2043,
      "sist": 2044,
      "ffer": 2045,
      "æŀľ": 2046,
      "anced": 2047,
      "ook": 2048,
      "Ġgenerate": 2049,
      "\\)": 2050,
      "pop": 2051,
      "Ġpoints": 2052,
      "ategor": 2053,
      "Ġ:=": 2054,
      "Ġag": 2055,
      "ĠThere": 2056,
      "æ³ķ": 2057,
      "hed": 2058,
      "Ġ.": 2059,
      "Ġimage": 2060,
      "mploy": 2061,
      "Set": 2062,
      "().": 2063,
      "Se": 2064,
      "Ġvoid": 2065,
      "Ġlibrary": 2066,
      "æĢ": 2067,
      "hift": 2068,
      "sol": 2069,
      "å¼": 2070,
      "[]": 2071,
      "ination": 2072,
      "ĠExpress": 2073,
      "ton": 2074,
      "RE": 2075,
      "åĪĹ": 2076,
      "å¹¶": 2077,
      "å®ŀçİ°": 2078,
      "Since": 2079,
      "essages": 2080,
      "Function": 2081,
      "ices": 2082,
      "oring": 2083,
      "Ġtry": 2084,
      "Time": 2085,
      "éĩ": 2086,
      "Ġ30": 2087,
      "Ġmemo": 2088,
      "QL": 2089,
      "Ġpassing": 2090,
      "Ġeffec": 2091,
      "Ġdisplay": 2092,
      "Ġmerge": 2093,
      "._": 2094,
      "ested": 2095,
      "tiv": 2096,
      "æį": 2097,
      "Ġent": 2098,
      "Ġtraversal": 2099,
      "Sum": 2100,
      "Ġpaths": 2101,
      "Ġthree": 2102,
      "gre": 2103,
      "Sort": 2104,
      "Ġprefix": 2105,
      "using": 2106,
      "ire": 2107,
      "Ġbackwards": 2108,
      "è¦": 2109,
      "Ġpred": 2110,
      "sorted": 2111,
      "very": 2112,
      "ready": 2113,
      "Ġpointer": 2114,
      "comm": 2115,
      "oc": 2116,
      "ĠClass": 2117,
      "Ġacc": 2118,
      "target": 2119,
      "vir": 2120,
      "ĠSc": 2121,
      "iew": 2122,
      "Ġquery": 2123,
      "istances": 2124,
      "Ġbecause": 2125,
      "ion": 2126,
      "imal": 2127,
      "åı¯": 2128,
      "acy": 2129,
      "ĠTree": 2130,
      "ĠMethod": 2131,
      "è¦ģ": 2132,
      "Ġpoint": 2133,
      "File": 2134,
      "sition": 2135,
      "æľī": 2136,
      "tively": 2137,
      "ĠSo": 2138,
      "viron": 2139,
      "åŃĹç¬¦": 2140,
      "ĠPo": 2141,
      "ulation": 2142,
      "äºİ": 2143,
      "Ġstatic": 2144,
      "Ġneeded": 2145,
      "Ġconsider": 2146,
      "Ġarrays": 2147,
      "ĠTo": 2148,
      "Ġdesign": 2149,
      "score": 2150,
      "imit": 2151,
      "ĠAl": 2152,
      "table": 2153,
      "Ġamount": 2154,
      "Ġscenarios": 2155,
      "Ġcompar": 2156,
      "Ġrequest": 2157,
      "Therefore": 2158,
      "Ġprevious": 2159,
      "ĠUn": 2160,
      "Ġclo": 2161,
      "assword": 2162,
      "Ġfiles": 2163,
      "Ġprivate": 2164,
      "IN": 2165,
      "ends": 2166,
      "æŃ": 2167,
      "Ġalready": 2168,
      "Ġhandles": 2169,
      "è§": 2170,
      "ĠAfter": 2171,
      "Ġexp": 2172,
      "Ġcycle": 2173,
      "åĽŀ": 2174,
      "Ġthink": 2175,
      "ject": 2176,
      "Po": 2177,
      "ync": 2178,
      "Ġabo": 2179,
      "ç»ĵ": 2180,
      "Ġob": 2181,
      "ross": 2182,
      "div": 2183,
      "Ġapply": 2184,
      "Ġcontent": 2185,
      "ĠStr": 2186,
      "ĠUpdate": 2187,
      "book": 2188,
      "åĨ": 2189,
      "Ġanswers": 2190,
      "æ¯ı": 2191,
      "sa": 2192,
      "Ġnecessary": 2193,
      "ĠMo": 2194,
      "man": 2195,
      "Ġadded": 2196,
      "Ġsatis": 2197,
      "alf": 2198,
      "åĪ°": 2199,
      "Ġmake": 2200,
      "ply": 2201,
      "Ġaverage": 2202,
      "times": 2203,
      "Ġvisual": 2204,
      "enerate": 2205,
      "ison": 2206,
      "Ġerrors": 2207,
      "åºı": 2208,
      "fit": 2209,
      "Ġkeys": 2210,
      "bal": 2211,
      "fer": 2212,
      "Ġsmallest": 2213,
      "Ġpot": 2214,
      "Ġconditions": 2215,
      "Ġsour": 2216,
      "mid": 2217,
      "ĠTest": 2218,
      "Ġinvol": 2219,
      "Ġsurround": 2220,
      "ĠDFS": 2221,
      "Ġlongest": 2222,
      "'t": 2223,
      "Ġsmall": 2224,
      "Ġparent": 2225,
      "¦Ĥ": 2226,
      "]`,": 2227,
      "ĠArray": 2228,
      "½æķ°": 2229,
      "uted": 2230,
      "encies": 2231,
      "åĩ½æķ°": 2232,
      "Ġdesc": 2233,
      "io": 2234,
      "ining": 2235,
      "Ġ<-": 2236,
      "Ġexpression": 2237,
      "Ġfloat": 2238,
      "ception": 2239,
      "with": 2240,
      "search": 2241,
      "reverse": 2242,
      "ading": 2243,
      "ĠCase": 2244,
      "dle": 2245,
      "Ġconfig": 2246,
      "AR": 2247,
      "abel": 2248,
      "ormal": 2249,
      "Ġiterate": 2250,
      "ĠMUST": 2251,
      "Ġrecursion": 2252,
      "ms": 2253,
      "Count": 2254,
      "tered": 2255,
      "track": 2256,
      "ĠInput": 2257,
      "ru": 2258,
      "ression": 2259,
      "å¦Ĥ": 2260,
      "Line": 2261,
      "join": 2262,
      "åĩº": 2263,
      "èĬ": 2264,
      "cessed": 2265,
      "mis": 2266,
      "aging": 2267,
      "ails": 2268,
      "çĽ": 2269,
      "ĠLet": 2270,
      "Ġsuccess": 2271,
      "words": 2272,
      "ĠSearch": 2273,
      "da": 2274,
      "Ġunderstand": 2275,
      "ences": 2276,
      "Add": 2277,
      "Ġwo": 2278,
      "èĬĤ": 2279,
      "ä¾": 2280,
      "Ġallows": 2281,
      "For": 2282,
      "Ġnegative": 2283,
      "Hello": 2284,
      "inf": 2285,
      "\"`": 2286,
      "Ġcell": 2287,
      "Ġthreads": 2288,
      "Ġ{}": 2289,
      "Ġexpected": 2290,
      "Ġiterates": 2291,
      "Ġsk": 2292,
      "grid": 2293,
      "Task": 2294,
      "Ġwould": 2295,
      "Ġrequire": 2296,
      "Ġtuple": 2297,
      "Ġcontin": 2298,
      "chron": 2299,
      "Ġdire": 2300,
      "ä»¬": 2301,
      "isplay": 2302,
      "Ġtri": 2303,
      "ma": 2304,
      "values": 2305,
      "ee": 2306,
      "User": 2307,
      "åħĥ": 2308,
      ";;": 2309,
      "board": 2310,
      "Ġinitialized": 2311,
      "TP": 2312,
      "asing": 2313,
      "Ġdec": 2314,
      "èĬĤçĤ¹": 2315,
      "Ġsimulate": 2316,
      "Ġrepresenting": 2317,
      "atter": 2318,
      "Ġcl": 2319,
      "Ġab": 2320,
      "25": 2321,
      "neighbor": 2322,
      "Number": 2323,
      "Ġelif": 2324,
      "let": 2325,
      "bash": 2326,
      "ĠHT": 2327,
      "split": 2328,
      "Ġresponse": 2329,
      "ĠDi": 2330,
      "face": 2331,
      "Ġconstraints": 2332,
      "Ġsource": 2333,
      "echn": 2334,
      "respon": 2335,
      "Ġachieve": 2336,
      "\");": 2337,
      "Ġmaking": 2338,
      "100": 2339,
      "ĥ½": 2340,
      "Ġbase": 2341,
      "aces": 2342,
      "Ġinstance": 2343,
      "Ġiteration": 2344,
      "Ġremove": 2345,
      "Ġthreshold": 2346,
      "ĠInt": 2347,
      "ks": 2348,
      "Ġexists": 2349,
      "ĠPar": 2350,
      "socket": 2351,
      "Ġfunctional": 2352,
      "è¾ĵ": 2353,
      "Ġplt": 2354,
      "not": 2355,
      "Ġsince": 2356,
      "Ġfl": 2357,
      "Ġfalse": 2358,
      "Ġsupp": 2359,
      "Ġstrateg": 2360,
      "ĠAs": 2361,
      "erature": 2362,
      "ange": 2363,
      "include": 2364,
      "Test": 2365,
      "raw": 2366,
      "cost": 2367,
      "Ġretrie": 2368,
      "Ġmessages": 2369,
      "And": 2370,
      "($": 2371,
      "Ġmodule": 2372,
      "Ġintegr": 2373,
      "eed": 2374,
      "hello": 2375,
      "vironment": 2376,
      "Ġweights": 2377,
      "func": 2378,
      "ynchron": 2379,
      "process": 2380,
      "plo": 2381,
      "ier": 2382,
      "Ġcomple": 2383,
      "Ġdistances": 2384,
      "cs": 2385,
      "å¾": 2386,
      "Ġlow": 2387,
      "Ġ??)": 2388,
      "'],": 2389,
      "ront": 2390,
      "cular": 2391,
      "lso": 2392,
      "amb": 2393,
      "Ġoper": 2394,
      "Ġlower": 2395,
      "onal": 2396,
      "Ġanalysis": 2397,
      "RL": 2398,
      "ects": 2399,
      "({": 2400,
      "æĪĳ": 2401,
      "crypt": 2402,
      "iding": 2403,
      "items": 2404,
      "mes": 2405,
      "TE": 2406,
      "ape": 2407,
      "ç´ł": 2408,
      "ĠIterate": 2409,
      "Id": 2410,
      "æĪĳä»¬": 2411,
      "Ġutil": 2412,
      "Ġinsert": 2413,
      "tivity": 2414,
      "title": 2415,
      "Ġsecure": 2416,
      "Ġexecution": 2417,
      "param": 2418,
      "Ġleast": 2419,
      "true": 2420,
      "Now": 2421,
      "jk": 2422,
      "è¡Į": 2423,
      "Ġsign": 2424,
      "Ġlevel": 2425,
      "Ġcomput": 2426,
      "Ġcorrespon": 2427,
      "ĠQu": 2428,
      "ĠTh": 2429,
      "è¿Ķ": 2430,
      "è¿ĶåĽŀ": 2431,
      "ares": 2432,
      "Ġ@": 2433,
      "Ġdefine": 2434,
      "Ġdue": 2435,
      "type": 2436,
      "ambda": 2437,
      "Ġcolumns": 2438,
      "Ġrows": 2439,
      "ç¤": 2440,
      "Ġcommon": 2441,
      "</": 2442,
      "ged": 2443,
      "cho": 2444,
      "ĠCS": 2445,
      "æĹ¶": 2446,
      "lib": 2447,
      "ound": 2448,
      "ensor": 2449,
      "åĢ": 2450,
      "ĠOp": 2451,
      "cept": 2452,
      "è¿Ļ": 2453,
      "å¯¹": 2454,
      "Ġcommand": 2455,
      "uplic": 2456,
      "capacity": 2457,
      "Ġwindow": 2458,
      "Ġdetailed": 2459,
      "amp": 2460,
      "Ġcap": 2461,
      "hentic": 2462,
      "pace": 2463,
      "Ġdifference": 2464,
      "æĿ¥": 2465,
      "clu": 2466,
      "Name": 2467,
      "å®ļ": 2468,
      "åº¦": 2469,
      "angle": 2470,
      "ttp": 2471,
      "ç¤º": 2472,
      "Comp": 2473,
      "Ġuntil": 2474,
      "Ġanalyze": 2475,
      "down": 2476,
      "Ġvertices": 2477,
      "apping": 2478,
      "ET": 2479,
      "Ġopen": 2480,
      "Hand": 2481,
      "Ġplot": 2482,
      "andard": 2483,
      "Ġvertex": 2484,
      "Ġcompare": 2485,
      "ailable": 2486,
      "Ġprocesses": 2487,
      "ĠScenario": 2488,
      "Ġcomponents": 2489,
      "ĠConvert": 2490,
      "eter": 2491,
      "clo": 2492,
      "ĠFl": 2493,
      "Ġconnected": 2494,
      "umul": 2495,
      "jkstra": 2496,
      "åħĥç´ł": 2497,
      "Ġavoid": 2498,
      "Ġ25": 2499,
      "Ġ>=": 2500,
      "15": 2501,
      "df": 2502,
      "Ġfeatures": 2503,
      "mented": 2504,
      "Ġgame": 2505,
      "Ġalso": 2506,
      "Ġchanges": 2507,
      "based": 2508,
      "flow": 2509,
      "Ġaddition": 2510,
      "');": 2511,
      "First": 2512,
      "example": 2513,
      "child": 2514,
      "Ġreversed": 2515,
      "Ġconsist": 2516,
      "gment": 2517,
      "req": 2518,
      "åĪĨ": 2519,
      "ish": 2520,
      "Iter": 2521,
      "Ġsquare": 2522,
      "go": 2523,
      "ĠResult": 2524,
      "'`": 2525,
      "std": 2526,
      "Ġupdates": 2527,
      "strings": 2528,
      "Ġtoken": 2529,
      "reating": 2530,
      "fully": 2531,
      "Ġcalculated": 2532,
      "txt": 2533,
      "push": 2534,
      "ĠSimul": 2535,
      "Ġcolor": 2536,
      "Ġcomplex": 2537,
      "åŃĲ": 2538,
      "False": 2539,
      "ribu": 2540,
      "ĠCom": 2541,
      "App": 2542,
      "istic": 2543,
      "public": 2544,
      "Ġmer": 2545,
      "Ġbit": 2546,
      "eries": 2547,
      "Ġpassword": 2548,
      "Ġpotential": 2549,
      "ĠHe": 2550,
      "duce": 2551,
      "Ġscore": 2552,
      "ĠAlgorithm": 2553,
      "...": 2554,
      "gin": 2555,
      "èĥ½": 2556,
      "Ġrequests": 2557,
      "None": 2558,
      "æŁ": 2559,
      "Ġ`{": 2560,
      "irc": 2561,
      "åĢ¼": 2562,
      "cores": 2563,
      "ler": 2564,
      "Ġmatches": 2565,
      "idth": 2566,
      ")`,": 2567,
      "ä»£": 2568,
      "Ġbalance": 2569,
      "ĠMe": 2570,
      "Ġ[(": 2571,
      "anti": 2572,
      "filter": 2573,
      "Par": 2574,
      "Ġadjust": 2575,
      "ĠPerform": 2576,
      "first": 2577,
      "ĠAnal": 2578,
      "Ġdate": 2579,
      "Stack": 2580,
      "Ġbuild": 2581,
      "Ġter": 2582,
      "Ġadding": 2583,
      "ĠStruct": 2584,
      "çł": 2585,
      "rap": 2586,
      "dition": 2587,
      "cial": 2588,
      "Ġoptimal": 2589,
      "Ġcreated": 2590,
      "other": 2591,
      "view": 2592,
      "Value": 2593,
      "Ġtake": 2594,
      "ĠFind": 2595,
      "Ġrepresents": 2596,
      "ness": 2597,
      "Ġexact": 2598,
      "vector": 2599,
      "load": 2600,
      "Ġmanagement": 2601,
      "Ġaccur": 2602,
      "è¿ĩ": 2603,
      "Ġimpro": 2604,
      "tent": 2605,
      "Check": 2606,
      "ackage": 2607,
      "point": 2608,
      "çłģ": 2609,
      "assi": 2610,
      "ç§": 2611,
      "model": 2612,
      "Map": 2613,
      "ĠPl": 2614,
      "Ġtechn": 2615,
      "å°Ĩ": 2616,
      "Ġremaining": 2617,
      "Ġ50": 2618,
      "ĠComplexity": 2619,
      "ana": 2620,
      "Ġload": 2621,
      "Ġapplications": 2622,
      "nect": 2623,
      "inally": 2624,
      "lections": 2625,
      "Ġefficiency": 2626,
      "train": 2627,
      "ä¸²": 2628,
      "ĠRecursive": 2629,
      "Ġ('": 2630,
      "output": 2631,
      "Ġdatasets": 2632,
      "No": 2633,
      "Ġdefault": 2634,
      "Ġlocal": 2635,
      "mt": 2636,
      "Ġrece": 2637,
      "Ġtypes": 2638,
      "SC": 2639,
      "]]": 2640,
      "Queue": 2641,
      "ager": 2642,
      "Design": 2643,
      "Ġprice": 2644,
      "ĠCh": 2645,
      "sume": 2646,
      "Ġupdated": 2647,
      "su": 2648,
      "pos": 2649,
      "parse": 2650,
      "æį®": 2651,
      "ift": 2652,
      "Ġlargest": 2653,
      "Ġcould": 2654,
      "orage": 2655,
      "Ġnamed": 2656,
      "Ġbest": 2657,
      "agonal": 2658,
      "stru": 2659,
      "Ġmode": 2660,
      "å¤§": 2661,
      "ĠUser": 2662,
      "ĠHandling": 2663,
      "recur": 2664,
      "ä¸ĭ": 2665,
      "server": 2666,
      "Ġparameters": 2667,
      "ycle": 2668,
      "ml": 2669,
      "Ġjson": 2670,
      "Ġidentify": 2671,
      "åī": 2672,
      "password": 2673,
      "Ġshow": 2674,
      "Ġrel": 2675,
      "elow": 2676,
      "è®¡ç®Ĺ": 2677,
      "thread": 2678,
      "Ġrecursively": 2679,
      "err": 2680,
      "Ġweb": 2681,
      "éĺ": 2682,
      "åħ¥": 2683,
      "Ġfil": 2684,
      "Ġfactorial": 2685,
      "ather": 2686,
      "Lo": 2687,
      "Me": 2688,
      "ĠSw": 2689,
      "Ġdigit": 2690,
      "Pri": 2691,
      "å§": 2692,
      "åĮĸ": 2693,
      "Ġchecking": 2694,
      "asure": 2695,
      "Ġagain": 2696,
      "Ġrob": 2697,
      "Ġgroup": 2698,
      "->": 2699,
      "Ġdigits": 2700,
      "ighbors": 2701,
      "Ġmon": 2702,
      "[:": 2703,
      "image": 2704,
      "entence": 2705,
      "Ġ===": 2706,
      "Ġpost": 2707,
      "Frame": 2708,
      "ä¼": 2709,
      "ĠProblem": 2710,
      "ords": 2711,
      "Ġabove": 2712,
      "Ġpalindrome": 2713,
      "Ġpositions": 2714,
      "distance": 2715,
      "By": 2716,
      "Ġhig": 2717,
      "Ġmark": 2718,
      "å§ĭ": 2719,
      "dge": 2720,
      "Ġ{'": 2721,
      "Ġselect": 2722,
      "åİ": 2723,
      "chain": 2724,
      "Ġpres": 2725,
      "ĠMain": 2726,
      "ĠMan": 2727,
      "Ġcoll": 2728,
      "Ġfetch": 2729,
      "Ġduplic": 2730,
      "Ġpositive": 2731,
      "Ġboard": 2732,
      "Ġheight": 2733,
      "Code": 2734,
      "ite": 2735,
      "cus": 2736,
      "url": 2737,
      "itialization": 2738,
      "estamp": 2739,
      "Ġremains": 2740,
      "ä¾ĭ": 2741,
      "`).": 2742,
      "ources": 2743,
      "Ġdirectory": 2744,
      "Ġmis": 2745,
      "Given": 2746,
      "adj": 2747,
      "));": 2748,
      "Ġdele": 2749,
      "itle": 2750,
      "Ġmost": 2751,
      "Ġshift": 2752,
      "ĠCalcul": 2753,
      "éĹ´": 2754,
      "ĠID": 2755,
      "Ġcounts": 2756,
      "Log": 2757,
      "Ġcounter": 2758,
      "lected": 2759,
      "Ġhold": 2760,
      "Ġconvert": 2761,
      "è·": 2762,
      "ä¹": 2763,
      "ene": 2764,
      "Ġdepth": 2765,
      "Ġcache": 2766,
      "NT": 2767,
      "apsack": 2768,
      "loc": 2769,
      "Ġassert": 2770,
      "Ġcorresponding": 2771,
      "quences": 2772,
      "js": 2773,
      "work": 2774,
      "random": 2775,
      "alle": 2776,
      "ĠSQL": 2777,
      "Ġeffectively": 2778,
      "Ġlinear": 2779,
      "So": 2780,
      "state": 2781,
      "Ġfinding": 2782,
      "Product": 2783,
      "ession": 2784,
      "Ġvar": 2785,
      "ale": 2786,
      "64": 2787,
      "æŃ¥": 2788,
      "Ġsepar": 2789,
      "pred": 2790,
      "Ġconcurrent": 2791,
      "itable": 2792,
      "cd": 2793,
      "Ġdouble": 2794,
      "riter": 2795,
      "Col": 2796,
      "mod": 2797,
      "Ġpermut": 2798,
      "dict": 2799,
      "Ġlines": 2800,
      "Path": 2801,
      "æŁ¥": 2802,
      "parent": 2803,
      "})": 2804,
      "32": 2805,
      "Ġmeans": 2806,
      "Ġ[[": 2807,
      "udent": 2808,
      "SE": 2809,
      "RI": 2810,
      "local": 2811,
      "do": 2812,
      "ĠHandle": 2813,
      "éľ": 2814,
      "allel": 2815,
      "Ġinsertion": 2816,
      "Ġpop": 2817,
      "Recursive": 2818,
      "ĠCSV": 2819,
      "Ġnumer": 2820,
      "RU": 2821,
      "éľĢ": 2822,
      "Ġuseful": 2823,
      "Ġcorrectly": 2824,
      "edge": 2825,
      "ä»£çłģ": 2826,
      "Ġplace": 2827,
      "Index": 2828,
      "è§£": 2829,
      "Ġexactly": 2830,
      "Ġevery": 2831,
      "tific": 2832,
      "Tree": 2833,
      "recursive": 2834,
      "åį": 2835,
      "ĠJava": 2836,
      "ĠUtil": 2837,
      "dy": 2838,
      "Ġpart": 2839,
      "rol": 2840,
      "ither": 2841,
      "Ġsets": 2842,
      "Ġframe": 2843,
      "Ġletter": 2844,
      "ĠRead": 2845,
      "Real": 2846,
      "Initialize": 2847,
      "imen": 2848,
      "Ġvowels": 2849,
      "Bu": 2850,
      "`**:": 2851,
      "ML": 2852,
      "Ġinvolves": 2853,
      "sec": 2854,
      "éª": 2855,
      "imize": 2856,
      "Ġnums": 2857,
      "ĠFile": 2858,
      "ĠBFS": 2859,
      "ĠTherefore": 2860,
      "remove": 2861,
      "presented": 2862,
      "ban": 2863,
      "Ġgoal": 2864,
      "Ġsche": 2865,
      "teger": 2866,
      "Ġdetect": 2867,
      "Ġ\\).": 2868,
      "Ġavailable": 2869,
      "Ġplayer": 2870,
      "height": 2871,
      "umer": 2872,
      "Read": 2873,
      "Ġ[\"": 2874,
      "æĸ¹": 2875,
      "0000": 2876,
      "çĲ": 2877,
      "æ¯ıä¸ª": 2878,
      "Ġprocessed": 2879,
      "sq": 2880,
      "With": 2881,
      "Ġour": 2882,
      "ĠWhen": 2883,
      "=[": 2884,
      "Ġnested": 2885,
      "Ġevaluate": 2886,
      "Ġatt": 2887,
      "åĲİ": 2888,
      "Ġupper": 2889,
      "ventory": 2890,
      "rehen": 2891,
      "Ġgu": 2892,
      "Ġlogging": 2893,
      "Ġheapq": 2894,
      "ription": 2895,
      "Ġappear": 2896,
      "åı¯ä»¥": 2897,
      "ĠURL": 2898,
      "block": 2899,
      "Ġconnection": 2900,
      "Ġextract": 2901,
      "learn": 2902,
      "umpy": 2903,
      "rder": 2904,
      "çĲĨ": 2905,
      "Ġbuil": 2906,
      "Ġ11": 2907,
      "Ġact": 2908,
      "é¢": 2909,
      "ĠMove": 2910,
      "æĮ": 2911,
      "rate": 2912,
      "atrix": 2913,
      "123": 2914,
      "has": 2915,
      "ĠSer": 2916,
      "Ġexceed": 2917,
      "Ġcom": 2918,
      "Ġsome": 2919,
      "Ġlowercase": 2920,
      "Ġus": 2921,
      "my": 2922,
      "client": 2923,
      "åŃĹç¬¦ä¸²": 2924,
      "uthor": 2925,
      "lper": 2926,
      "ä¿": 2927,
      "crement": 2928,
      "Ġalgorithms": 2929,
      "Sub": 2930,
      "inations": 2931,
      "';": 2932,
      "entiment": 2933,
      "Ġinterval": 2934,
      "ilar": 2935,
      ")))": 2936,
      "Ġeas": 2937,
      "ĠPrint": 2938,
      "ries": 2939,
      "Ġwhether": 2940,
      "Graph": 2941,
      "Ġrepresented": 2942,
      "Ġvarious": 2943,
      "ives": 2944,
      "LL": 2945,
      "Ġconf": 2946,
      "Ġfield": 2947,
      "wait": 2948,
      "ength": 2949,
      "apple": 2950,
      "Ġappl": 2951,
      "Ġlst": 2952,
      "Ġmiddle": 2953,
      "Ġbuffer": 2954,
      "priate": 2955,
      "com": 2956,
      "Ġstored": 2957,
      "Ġmight": 2958,
      "Ġ-=": 2959,
      "ds": 2960,
      "ĠUsing": 2961,
      "lust": 2962,
      "éģ": 2963,
      "Ġacross": 2964,
      "Ġsplit": 2965,
      "åīį": 2966,
      "ĠProvide": 2967,
      "Ġnull": 2968,
      "ĠSub": 2969,
      "Understand": 2970,
      "Ġcategor": 2971,
      "Ġsocket": 2972,
      "Ġau": 2973,
      "isit": 2974,
      "Ġbound": 2975,
      "Man": 2976,
      "csv": 2977,
      "Book": 2978,
      "ĠGraph": 2979,
      "ĠUses": 2980,
      "tect": 2981,
      "Ġincluding": 2982,
      "éĢļ": 2983,
      "++)": 2984,
      "ipher": 2985,
      "Ġrepe": 2986,
      "lication": 2987,
      "Develop": 2988,
      "Ġdfs": 2989,
      "empty": 2990,
      "prime": 2991,
      "ĠRepresent": 2992,
      "Ġ\"$": 2993,
      "lar": 2994,
      "vices": 2995,
      "Ġcomparison": 2996,
      ".\"": 2997,
      "cep": 2998,
      "angu": 2999,
      "Ġma": 3000,
      "Ġanother": 3001,
      "atterns": 3002,
      "Ġduring": 3003,
      "ĠNumber": 3004,
      "Ġmodul": 3005,
      "ç½": 3006,
      "Exception": 3007,
      "Ġq": 3008,
      "ĠTime": 3009,
      "Ġsim": 3010,
      "bject": 3011,
      "ĠHTTP": 3012,
      "dep": 3013,
      "Char": 3014,
      "Ġotherwise": 3015,
      "ĠXOR": 3016,
      "ĠOn": 3017,
      "ĠPre": 3018,
      "Ġincrement": 3019,
      "åĲĪ": 3020,
      "Ġbelow": 3021,
      "ĠOperation": 3022,
      "ĠRun": 3023,
      "Ġonce": 3024,
      "Of": 3025,
      "Ġden": 3026,
      "ĠReal": 3027,
      "havi": 3028,
      "Ġenh": 3029,
      "Ġcycles": 3030,
      "ĠNo": 3031,
      "Ġdemonstrates": 3032,
      "ĠTask": 3033,
      "Ġappropriate": 3034,
      "Ġecho": 3035,
      "Ġbacktrack": 3036,
      "dig": 3037,
      "squ": 3038,
      "Ġencryption": 3039,
      "Ġcomputes": 3040,
      "renc": 3041,
      "Ġalph": 3042,
      "pair": 3043,
      "Ġmanip": 3044,
      "æī¾": 3045,
      "ĠIndex": 3046,
      "Thus": 3047,
      "pattern": 3048,
      "top": 3049,
      "ĠFlask": 3050,
      "Ġnames": 3051,
      "Ġway": 3052,
      "Ġcompleted": 3053,
      "ĠDec": 3054,
      "arning": 3055,
      "inct": 3056,
      "rac": 3057,
      "ĠTable": 3058,
      "Ġcomprehen": 3059,
      "Ġenvironment": 3060,
      "åħ¶": 3061,
      "Ġversion": 3062,
      "edian": 3063,
      "transform": 3064,
      "Ġattemp": 3065,
      "Print": 3066,
      "ĠSolution": 3067,
      "ĠBy": 3068,
      "ott": 3069,
      "Ġdelete": 3070,
      "Ġqueries": 3071,
      "Ġneighbors": 3072,
      "World": 3073,
      "åŃĺ": 3074,
      "Ġsubse": 3075,
      "Ġbooks": 3076,
      "Ġmut": 3077,
      "Ġvowel": 3078,
      "Ġsimp": 3079,
      "ĠRemove": 3080,
      "points": 3081,
      "30": 3082,
      "Ġarea": 3083,
      "etrics": 3084,
      "check": 3085,
      "Ġsample": 3086,
      "Ġexplanation": 3087,
      "ĠTrie": 3088,
      "(??,": 3089,
      "ĠReturns": 3090,
      "Script": 3091,
      "jure": 3092,
      "Ġraise": 3093,
      "State": 3094,
      "Ġiterative": 3095,
      "Server": 3096,
      "ĠDefin": 3097,
      "Ġproperties": 3098,
      "Ġque": 3099,
      "Ġemploy": 3100,
      "Ġverify": 3101,
      "ĠAd": 3102,
      "DFS": 3103,
      "Ġsums": 3104,
      "ĠSu": 3105,
      "fil": 3106,
      "Ġreplace": 3107,
      "Ġreturned": 3108,
      "echan": 3109,
      "[-": 3110,
      "be": 3111,
      "Find": 3112,
      "Ġmany": 3113,
      "Ġfrequ": 3114,
      "uous": 3115,
      "amo": 3116,
      "Ġsuitable": 3117,
      "Ġreach": 3118,
      "roach": 3119,
      "Ġauthentic": 3120,
      "Ġdevelop": 3121,
      "Ġassign": 3122,
      "iff": 3123,
      "Ġexplore": 3124,
      "mber": 3125,
      "åĬł": 3126,
      "weight": 3127,
      "Ġscal": 3128,
      "Ġtransaction": 3129,
      "As": 3130,
      "æķ°æį®": 3131,
      "Ġpointers": 3132,
      "token": 3133,
      "iqu": 3134,
      "plication": 3135,
      "ordin": 3136,
      "Ġloc": 3137,
      "price": 3138,
      "az": 3139,
      "level": 3140,
      "lay": 3141,
      "amount": 3142,
      "Ġpe": 3143,
      "LI": 3144,
      "å¦Ĥæŀľ": 3145,
      "Ġ&&": 3146,
      "the": 3147,
      "Max": 3148,
      "roll": 3149,
      "ived": 3150,
      "å·": 3151,
      "Ġrepresentation": 3152,
      "Ġrobust": 3153,
      "Ġobjects": 3154,
      "Ġpower": 3155,
      "hat": 3156,
      "Ġpartition": 3157,
      "ĠTrans": 3158,
      "Ġadditional": 3159,
      "cl": 3160,
      "Ġenti": 3161,
      "olean": 3162,
      "æīĢ": 3163,
      "Ġsubstrings": 3164,
      "://": 3165,
      "cip": 3166,
      "ans": 3167,
      "æİĴ": 3168,
      ")):": 3169,
      "ĠBo": 3170,
      "Ġsetup": 3171,
      "visited": 3172,
      "Ġenco": 3173,
      "plotlib": 3174,
      "Ġcomputation": 3175,
      "ĠSteps": 3176,
      "elements": 3177,
      "ircle": 3178,
      "println": 3179,
      "Ġencrypted": 3180,
      "Ġequals": 3181,
      "Ġsmaller": 3182,
      "multi": 3183,
      "isible": 3184,
      "cent": 3185,
      "ĠTreeNode": 3186,
      "23": 3187,
      "Ġautom": 3188,
      "ols": 3189,
      "Ġ;;": 3190,
      "ircular": 3191,
      "ĠValid": 3192,
      "Ġbeen": 3193,
      "Ġaccuracy": 3194,
      "fib": 3195,
      "fies": 3196,
      "position": 3197,
      "ended": 3198,
      "Ġchoose": 3199,
      "æķ´": 3200,
      "Ġlimit": 3201,
      "Ġstatus": 3202,
      "éľĢè¦ģ": 3203,
      "(),": 3204,
      "ati": 3205,
      "Ġwant": 3206,
      "ants": 3207,
      "ĠPri": 3208,
      "sitive": 3209,
      "Ġhelp": 3210,
      "Ġprevent": 3211,
      "Ġtuples": 3212,
      "long": 3213,
      "atform": 3214,
      "Ġdesi": 3215,
      "mail": 3216,
      "ĠDefinition": 3217,
      "ird": 3218,
      "ĠBase": 3219,
      "ĠGet": 3220,
      "Ġdepend": 3221,
      "fibonacci": 3222,
      "priority": 3223,
      "ĠCol": 3224,
      "ances": 3225,
      "Ġfeature": 3226,
      "console": 3227,
      "Ġstandard": 3228,
      "AB": 3229,
      "è¿Ľ": 3230,
      "ired": 3231,
      "ders": 3232,
      "Ġconnections": 3233,
      "æ£": 3234,
      "Trans": 3235,
      "rea": 3236,
      "å°ı": 3237,
      "encryp": 3238,
      "Ġ});": 3239,
      "\"`,": 3240,
      "arp": 3241,
      "Ġhalf": 3242,
      "Ġcomponent": 3243,
      "Ġcent": 3244,
      "Ġlarger": 3245,
      "hest": 3246,
      "Ġdivide": 3247,
      "Ġmeet": 3248,
      "\"]": 3249,
      "Com": 3250,
      "ĠStructure": 3251,
      "ĠWrite": 3252,
      "ename": 3253,
      "99": 3254,
      "Ġchange": 3255,
      "unic": 3256,
      "ä¸į": 3257,
      "plt": 3258,
      "Ġwas": 3259,
      "ĠGo": 3260,
      "hedul": 3261,
      "status": 3262,
      "Ġauth": 3263,
      "Ġexcept": 3264,
      "'`.": 3265,
      "gate": 3266,
      "Ġconsole": 3267,
      "lower": 3268,
      "ĠFinally": 3269,
      "\";": 3270,
      "post": 3271,
      "Ġrespon": 3272,
      "Ġdistribu": 3273,
      "æĸ°": 3274,
      "å»": 3275,
      "tics": 3276,
      "Element": 3277,
      "RO": 3278,
      "Ġincludes": 3279,
      "air": 3280,
      "Ġcity": 3281,
      "hes": 3282,
      "Ġpd": 3283,
      "ily": 3284,
      "ĠProgram": 3285,
      "calculate": 3286,
      "çŁ": 3287,
      "Op": 3288,
      "Ġext": 3289,
      "CD": 3290,
      "ference": 3291,
      "antity": 3292,
      "lutions": 3293,
      "\"))": 3294,
      "kell": 3295,
      "Ġhelps": 3296,
      "æŃ¥éª": 3297,
      "send": 3298,
      "Ġcomputed": 3299,
      "Ġmaintaining": 3300,
      "æŃ¥éª¤": 3301,
      "Ġfinds": 3302,
      "Ġparts": 3303,
      "Ġdesired": 3304,
      "ä»¶": 3305,
      "owels": 3306,
      "Ġproducts": 3307,
      "Ġ40": 3308,
      "45": 3309,
      "æĪĲ": 3310,
      "åºĶ": 3311,
      "Ġport": 3312,
      "create": 3313,
      "Ġdivis": 3314,
      "ĠRequ": 3315,
      "ĠHash": 3316,
      "db": 3317,
      "echanis": 3318,
      "ä½ľ": 3319,
      "å»º": 3320,
      "Result": 3321,
      "CT": 3322,
      "cast": 3323,
      "abels": 3324,
      "Ġhere": 3325,
      "Ġstock": 3326,
      "ware": 3327,
      "Ġlock": 3328,
      "Ġimplementing": 3329,
      "Ġcollision": 3330,
      "è¾ĵåĩº": 3331,
      "banana": 3332,
      "Ġparse": 3333,
      "nodes": 3334,
      "ĠValue": 3335,
      "ilities": 3336,
      "Ġsend": 3337,
      "gg": 3338,
      "åİĨ": 3339,
      "fn": 3340,
      "å¸": 3341,
      "lex": 3342,
      "è½": 3343,
      "factorial": 3344,
      "label": 3345,
      "Thread": 3346,
      "Item": 3347,
      "Ġdemonstrate": 3348,
      "rency": 3349,
      "Ġstructures": 3350,
      "AL": 3351,
      "less": 3352,
      "Ġlever": 3353,
      "straints": 3354,
      "secu": 3355,
      "Ġjava": 3356,
      "Ġdecryp": 3357,
      "Ġnumpy": 3358,
      "Ġinstall": 3359,
      "Ġcomments": 3360,
      "Ġerr": 3361,
      "ĠCompare": 3362,
      "ately": 3363,
      "ĠApproach": 3364,
      "Ġgra": 3365,
      "Ġru": 3366,
      "ithme": 3367,
      "ç¼": 3368,
      "unique": 3369,
      "Ġ`$": 3370,
      "ithmetic": 3371,
      "event": 3372,
      "Ġclust": 3373,
      "Use": 3374,
      "Ġperforms": 3375,
      "utton": 3376,
      "yz": 3377,
      "uby": 3378,
      "View": 3379,
      "delete": 3380,
      "stination": 3381,
      "return": 3382,
      "Ġgraphs": 3383,
      "alindrom": 3384,
      "fier": 3385,
      "Ġcreating": 3386,
      "Ġdeque": 3387,
      "andas": 3388,
      "ç»ĵæŀľ": 3389,
      "ploy": 3390,
      "Ġoptimize": 3391,
      "Ġconfiguration": 3392,
      "Ġeither": 3393,
      "Ġtitle": 3394,
      "Ġallowing": 3395,
      "ertain": 3396,
      "Ġmoves": 3397,
      "ording": 3398,
      "Ġmatching": 3399,
      "havior": 3400,
      "uple": 3401,
      "Ġlibraries": 3402,
      "Ġpatterns": 3403,
      "éģį": 3404,
      "anguage": 3405,
      "Ġsatisfy": 3406,
      "efficient": 3407,
      "Ġsl": 3408,
      "éģįåİĨ": 3409,
      "ATE": 3410,
      "ked": 3411,
      "æīĢæľī": 3412,
      "Ġtemperature": 3413,
      "Ġtransactions": 3414,
      "Ġfunctionality": 3415,
      "æ£Ģ": 3416,
      "safe": 3417,
      "pping": 3418,
      "Ġresources": 3419,
      "åĪĹè¡¨": 3420,
      "éĹ®": 3421,
      "æĭ": 3422,
      "Ġrespec": 3423,
      "Ġstrategy": 3424,
      "bug": 3425,
      "å½ĵ": 3426,
      "ĠSum": 3427,
      "ubble": 3428,
      "Ġpresent": 3429,
      "ĠLoop": 3430,
      "sp": 3431,
      "Ġremoving": 3432,
      "Ġquicksort": 3433,
      "uture": 3434,
      "Ġthird": 3435,
      "Ġsetting": 3436,
      "ç®Ĺæ³ķ": 3437,
      "Ġappend": 3438,
      "'])": 3439,
      "ulate": 3440,
      "UT": 3441,
      "Ġadjacent": 3442,
      "éĢļè¿ĩ": 3443,
      "nel": 3444,
      "Ġuppercase": 3445,
      "cepts": 3446,
      "Qu": 3447,
      "Ġinterface": 3448,
      "rot": 3449,
      "}`.": 3450,
      "ĠSimulate": 3451,
      "æĽ": 3452,
      "Ġhelper": 3453,
      "Ġworks": 3454,
      "ched": 3455,
      "Ġresource": 3456,
      "Ġsy": 3457,
      "Ġstream": 3458,
      "Ġmissing": 3459,
      "Ġcur": 3460,
      "af": 3461,
      "Ġdivision": 3462,
      "éĩı": 3463,
      "inkedList": 3464,
      "stream": 3465,
      "Ġ13": 3466,
      "valuate": 3467,
      "roid": 3468,
      "Ġes": 3469,
      "cache": 3470,
      "`ï¼Į": 3471,
      "è·¯": 3472,
      "Ġsafe": 3473,
      "ç¡": 3474,
      "vels": 3475,
      "Calculate": 3476,
      "ĠCount": 3477,
      "Ġ1000": 3478,
      "tasks": 3479,
      "Ġdirectly": 3480,
      "\\).": 3481,
      "Ġprov": 3482,
      "Ġproject": 3483,
      "host": 3484,
      "Ġday": 3485,
      "Ġproperty": 3486,
      "fl": 3487,
      "Ġsubtree": 3488,
      "Ġ::": 3489,
      "Ġlook": 3490,
      "Ġstorage": 3491,
      "ula": 3492,
      "avas": 3493,
      "Ġdistinct": 3494,
      "avascript": 3495,
      "ĠDemonstr": 3496,
      "ĠAc": 3497,
      "kens": 3498,
      "ĠCalculation": 3499,
      "Ġcalculations": 3500,
      "secutive": 3501,
      "actors": 3502,
      "ĠOver": 3503,
      "Ġindicating": 3504,
      "80": 3505,
      "Search": 3506,
      "Ġlearning": 3507,
      "Ġimprove": 3508,
      "Ġoccurrences": 3509,
      "agement": 3510,
      "Hash": 3511,
      "Ġbool": 3512,
      "50": 3513,
      "è®¾": 3514,
      "Ġ??);": 3515,
      "ĠClo": 3516,
      "ixir": 3517,
      "ĠSh": 3518,
      "Ġside": 3519,
      "ĠConsider": 3520,
      "race": 3521,
      "bit": 3522,
      "Ġnormal": 3523,
      "Ġrest": 3524,
      "Ġalloc": 3525,
      "username": 3526,
      "iques": 3527,
      "Ġ`-": 3528,
      "Ġvariables": 3529,
      "void": 3530,
      "ulia": 3531,
      "update": 3532,
      "rec": 3533,
      "Ġargs": 3534,
      "ĠGenerate": 3535,
      "ĠProcess": 3536,
      "rit": 3537,
      "uff": 3538,
      "OST": 3539,
      "01": 3540,
      "Ġfore": 3541,
      "mage": 3542,
      "Initialization": 3543,
      "Ġnil": 3544,
      "ĠDis": 3545,
      "ĠDP": 3546,
      "Text": 3547,
      "etermine": 3548,
      "Ġlogs": 3549,
      "Ġmodulo": 3550,
      "rip": 3551,
      "Ġdimen": 3552,
      "Ġfactor": 3553,
      "Up": 3554,
      "ĠQuick": 3555,
      "Length": 3556,
      "ç´¢": 3557,
      "Ġgives": 3558,
      "Ġclassi": 3559,
      "children": 3560,
      "çĶ¨äºİ": 3561,
      "ĠCall": 3562,
      "Ġreduc": 3563,
      "Ġaccount": 3564,
      "util": 3565,
      "Ġactual": 3566,
      "ĠDijkstra": 3567,
      "æİ¥": 3568,
      "ĠMerge": 3569,
      "Ġmultiply": 3570,
      "ĠError": 3571,
      "Ġreturning": 3572,
      "ä½į": 3573,
      "Ġmodify": 3574,
      "å¤Ħ": 3575,
      "edy": 3576,
      "Ġsklearn": 3577,
      "ĠApplication": 3578,
      "åĬ¨": 3579,
      "Ġreads": 3580,
      "Ġcollections": 3581,
      "Ġinitialize": 3582,
      "run": 3583,
      "exp": 3584,
      "rank": 3585,
      "ĠType": 3586,
      "redu": 3587,
      "Ġstatement": 3588,
      "ç½®": 3589,
      "Ġmodified": 3590,
      "Ġsession": 3591,
      "Ġwho": 3592,
      "Ġcontext": 3593,
      "Ġreport": 3594,
      "Ġimm": 3595,
      "ottom": 3596,
      "Ġprec": 3597,
      "define": 3598,
      "ane": 3599,
      "ï¼ī": 3600,
      "ï¼Ī": 3601,
      "å¤į": 3602,
      "gree": 3603,
      "Ġcoins": 3604,
      "Ġpur": 3605,
      "Ġalong": 3606,
      "AC": 3607,
      "Ġprices": 3608,
      "ics": 3609,
      "ames": 3610,
      "Sh": 3611,
      "izer": 3612,
      "Ġsubarrays": 3613,
      "Ġinvalid": 3614,
      "Alice": 3615,
      "dire": 3616,
      "Ac": 3617,
      "mit": 3618,
      "Ġreading": 3619,
      "ĠLoad": 3620,
      "ributes": 3621,
      "Date": 3622,
      "Ġdetails": 3623,
      "`),": 3624,
      "ç¨": 3625,
      "Base": 3626,
      "Ġthreading": 3627,
      "ĠCases": 3628,
      "ĵį": 3629,
      "ways": 3630,
      "å¤ĦçĲĨ": 3631,
      "Ġsubsequence": 3632,
      "lambda": 3633,
      "Ġred": 3634,
      "Ġä½¿çĶ¨": 3635,
      "Ġtests": 3636,
      "cument": 3637,
      "ĠDisplay": 3638,
      "Type": 3639,
      "ĠDataFrame": 3640,
      "æı": 3641,
      "ĠCont": 3642,
      "heapp": 3643,
      "Ġmechanis": 3644,
      "ĠMin": 3645,
      "urity": 3646,
      "Requ": 3647,
      "javascript": 3648,
      "Ġdetermin": 3649,
      "Ġsupport": 3650,
      "ĠConsole": 3651,
      "Ġsolved": 3652,
      "ĠLe": 3653,
      "Ġprev": 3654,
      "Ġsee": 3655,
      "ç¤ºä¾ĭ": 3656,
      "Ġaccording": 3657,
      "EY": 3658,
      "try": 3659,
      "MP": 3660,
      "Di": 3661,
      "http": 3662,
      "active": 3663,
      "ĠAnalysis": 3664,
      "Ġcontinue": 3665,
      "åĲ¦": 3666,
      "'),": 3667,
      "éĻ": 3668,
      "è¯¥": 3669,
      ")\\)": 3670,
      "counts": 3671,
      "Ġneeds": 3672,
      "Ġparameter": 3673,
      "Ġservice": 3674,
      "Ġknapsack": 3675,
      "ĠOptim": 3676,
      "Ġalphab": 3677,
      "Ġincluded": 3678,
      "ĠAt": 3679,
      "Ġmatrices": 3680,
      "Ġtesting": 3681,
      "Edge": 3682,
      "Ġweather": 3683,
      "sumer": 3684,
      "Ġtimestamp": 3685,
      "edges": 3686,
      "ç¡®": 3687,
      "Ġevents": 3688,
      "ypes": 3689,
      "tail": 3690,
      "Ġfib": 3691,
      "};": 3692,
      "Ġrepeated": 3693,
      "Ġdynamically": 3694,
      "Ġclean": 3695,
      "ĠRE": 3696,
      "Ġdiagonal": 3697,
      "Ġclear": 3698,
      "match": 3699,
      "ixed": 3700,
      "Ġselected": 3701,
      "encode": 3702,
      "Ġmemoization": 3703,
      "Dec": 3704,
      "rack": 3705,
      "ä¼ĺ": 3706,
      "Ġchildren": 3707,
      "rc": 3708,
      "Ġthrow": 3709,
      "æİĴåºı": 3710,
      "ighted": 3711,
      "hand": 3712,
      "Le": 3713,
      "Ġbehavior": 3714,
      "CRE": 3715,
      "Ġtransformed": 3716,
      "Ġcipher": 3717,
      "phic": 3718,
      "write": 3719,
      "ä¿Ŀ": 3720,
      "entify": 3721,
      "ĠLibr": 3722,
      "æĹ¶éĹ´": 3723,
      "atures": 3724,
      "ural": 3725,
      "ores": 3726,
      "game": 3727,
      "Tra": 3728,
      "Str": 3729,
      "ently": 3730,
      "Ġhighest": 3731,
      "Ġ\\]": 3732,
      "Ġcreates": 3733,
      "Ġlengths": 3734,
      "ĠâĢ": 3735,
      "ek": 3736,
      "Ġunder": 3737,
      "æĶ": 3738,
      "Message": 3739,
      "ä»İ": 3740,
      "æ¨": 3741,
      "Ġsizes": 3742,
      "Ġsolutions": 3743,
      "Ġprin": 3744,
      "odd": 3745,
      "Ġscores": 3746,
      "Ġtechniques": 3747,
      "Ġfin": 3748,
      "draw": 3749,
      "ĠInclude": 3750,
      "SA": 3751,
      "Ġpackage": 3752,
      "optim": 3753,
      "æ¨¡": 3754,
      "è¿Ľè¡Į": 3755,
      "custom": 3756,
      "Al": 3757,
      "onents": 3758,
      "Ġschedul": 3759,
      "umn": 3760,
      "trac": 3761,
      "ducer": 3762,
      "Ġhal": 3763,
      "umerate": 3764,
      "ynchronous": 3765,
      "Ġparallel": 3766,
      "Ġpermutations": 3767,
      ")`:": 3768,
      "aa": 3769,
      "Ġpush": 3770,
      "Ġboolean": 3771,
      "æ¬": 3772,
      "section": 3773,
      "å¾Ħ": 3774,
      "Manager": 3775,
      "ĠInsert": 3776,
      "ameters": 3777,
      "ĠBook": 3778,
      "Ġsorts": 3779,
      "ht": 3780,
      "Mo": 3781,
      "}`": 3782,
      "ĠCompute": 3783,
      "Ġsystems": 3784,
      "Ġpip": 3785,
      "Ġfront": 3786,
      "ators": 3787,
      "ĠInitial": 3788,
      "Ġformula": 3789,
      "`:**": 3790,
      "stance": 3791,
      "ç¨ĭ": 3792,
      "rees": 3793,
      "content": 3794,
      "åĪĿ": 3795,
      "è·¯å¾Ħ": 3796,
      "Ġtraffic": 3797,
      "HP": 3798,
      "Ġchain": 3799,
      "Ġhist": 3800,
      "prev": 3801,
      "struction": 3802,
      "Ġfibonacci": 3803,
      "Ġtrain": 3804,
      "ĠOther": 3805,
      "half": 3806,
      "Ġref": 3807,
      "Ġfollows": 3808,
      "çĽ®": 3809,
      "Ġfast": 3810,
      "ĠApply": 3811,
      "Ġrunning": 3812,
      "Su": 3813,
      "(&": 3814,
      "Ġsecurity": 3815,
      "atically": 3816,
      "HA": 3817,
      "Ġauto": 3818,
      "etrie": 3819,
      "nection": 3820,
      "ĠStack": 3821,
      "ND": 3822,
      "Ġshared": 3823,
      "Ġsales": 3824,
      "±Ĥ": 3825,
      "api": 3826,
      "Ġdoesn": 3827,
      "Ġsimilar": 3828,
      "ering": 3829,
      "æłĩ": 3830,
      "gine": 3831,
      "åĪĿå§ĭ": 3832,
      "ĠQueue": 3833,
      "={": 3834,
      "Ġaccumul": 3835,
      "ĠBu": 3836,
      "Ġview": 3837,
      "24": 3838,
      "Ġcommunic": 3839,
      "ĠCustom": 3840,
      "Ġtool": 3841,
      "solving": 3842,
      "binary": 3843,
      "Ġentire": 3844,
      "Ġagainst": 3845,
      "Ġfmt": 3846,
      "Ġbeing": 3847,
      "Ġ18": 3848,
      "ua": 3849,
      "Ġdetection": 3850,
      "aced": 3851,
      "acency": 3852,
      "operation": 3853,
      "Custom": 3854,
      "udents": 3855,
      "atis": 3856,
      "alth": 3857,
      "Ġspaces": 3858,
      "Ġ200": 3859,
      "Ġentry": 3860,
      "('/": 3861,
      "Ġtraining": 3862,
      "eather": 3863,
      "Ġcoin": 3864,
      "Ġaction": 3865,
      "ĠInter": 3866,
      "Ġsentiment": 3867,
      "Ġfour": 3868,
      "au": 3869,
      "Heap": 3870,
      "mission": 3871,
      "Ġtraverse": 3872,
      "processing": 3873,
      "Ġdivisible": 3874,
      "merge": 3875,
      "Ġoff": 3876,
      "palindrome": 3877,
      "ibility": 3878,
      "256": 3879,
      "Ġph": 3880,
      "ili": 3881,
      "Ġproviding": 3882,
      "Ġsequences": 3883,
      "Ġconsecutive": 3884,
      "Perform": 3885,
      "Ġ14": 3886,
      "ĠBST": 3887,
      "Ġconverted": 3888,
      "ĠSetup": 3889,
      "ĠINT": 3890,
      "ĠProduct": 3891,
      "Ġadds": 3892,
      "Ġsug": 3893,
      "Ġsever": 3894,
      "anner": 3895,
      "å½ĵåīį": 3896,
      "Ġmet": 3897,
      "abilities": 3898,
      "ract": 3899,
      "Ġequ": 3900,
      "ĠAdj": 3901,
      "Ġsignific": 3902,
      "ifies": 3903,
      "ĠStore": 3904,
      "Pl": 3905,
      "mand": 3906,
      "ĠMax": 3907,
      "ots": 3908,
      "æ£ĢæŁ¥": 3909,
      "Ġcatch": 3910,
      "Ġcontrol": 3911,
      "æĢ§": 3912,
      "æ¬¡": 3913,
      "Ġoptimized": 3914,
      "Ġ()": 3915,
      "!(": 3916,
      "Ġshe": 3917,
      "Ġauthentication": 3918,
      "Ġvalidation": 3919,
      "fo": 3920,
      "Ġcoordin": 3921,
      "Ġyear": 3922,
      "CS": 3923,
      "utex": 3924,
      "Ġintegrity": 3925,
      "Ad": 3926,
      "Ġrever": 3927,
      "Iterate": 3928,
      "ä¸¤": 3929,
      "æĽ´": 3930,
      "'`,": 3931,
      "II": 3932,
      "ĠRec": 3933,
      "racket": 3934,
      "siz": 3935,
      "æľĢå¤§": 3936,
      "width": 3937,
      "ĠHow": 3938,
      "unk": 3939,
      "Ġswap": 3940,
      "java": 3941,
      "Pre": 3942,
      "Valid": 3943,
      "ehic": 3944,
      "stac": 3945,
      "Ġclients": 3946,
      "Ġdestination": 3947,
      "è¿Ļä¸ª": 3948,
      "vertex": 3949,
      "edu": 3950,
      "Order": 3951,
      "sharp": 3952,
      "ecution": 3953,
      "ribute": 3954,
      "pped": 3955,
      "gation": 3956,
      "Ġdirected": 3957,
      "graphic": 3958,
      "Ġseries": 3959,
      "Ġsubset": 3960,
      "Ġ},": 3961,
      "Ġincreasing": 3962,
      "Ġiss": 3963,
      "eedback": 3964,
      "Ġprintln": 3965,
      "Ġmodels": 3966,
      "Ġmanaging": 3967,
      "balance": 3968,
      "Ġpredi": 3969,
      "è½¬": 3970,
      "cuss": 3971,
      "Ġprac": 3972,
      "olve": 3973,
      "contain": 3974,
      "Ġoperator": 3975,
      "pression": 3976,
      "());": 3977,
      "Ġplay": 3978,
      "enqueue": 3979,
      "Ġfail": 3980,
      "}{": 3981,
      "rypto": 3982,
      "]))": 3983,
      "soci": 3984,
      "php": 3985,
      "Ġsentence": 3986,
      "Dynamic": 3987,
      "Ġmultiplication": 3988,
      "equal": 3989,
      "Ġtail": 3990,
      "ĠDep": 3991,
      "Ġinfin": 3992,
      "Ġplatform": 3993,
      "eline": 3994,
      "tition": 3995,
      "æĺ¯åĲ¦": 3996,
      "weights": 3997,
      "Ġreduce": 3998,
      ">>": 3999,
      "æĵį": 4000,
      "city": 4001,
      "Ġfailed": 4002,
      "::-": 4003,
      "éķ": 4004,
      "ĠModel": 4005,
      "æĵįä½ľ": 4006,
      "Ġregular": 4007,
      "orp": 4008,
      "negative": 4009,
      "peri": 4010,
      "ĠImport": 4011,
      "Ġtransformation": 4012,
      "Ġduplicates": 4013,
      "Ġasked": 4014,
      "Numbers": 4015,
      "Ġmerged": 4016,
      "mark": 4017,
      "ĠExtract": 4018,
      "memo": 4019,
      "Ġsegment": 4020,
      "itor": 4021,
      "rand": 4022,
      "ually": 4023,
      "ialize": 4024,
      "stall": 4025,
      "Ġpas": 4026,
      "Ġ^": 4027,
      "scal": 4028,
      "Even": 4029,
      "33": 4030,
      "!\"": 4031,
      "os": 4032,
      "gex": 4033,
      "atten": 4034,
      "Ġjob": 4035,
      "å¼ı": 4036,
      "rows": 4037,
      "ĠScal": 4038,
      "Div": 4039,
      "ressed": 4040,
      "wrap": 4041,
      "dio": 4042,
      "WriteLine": 4043,
      "--------": 4044,
      "Ġmanipulation": 4045,
      "Ġ};": 4046,
      "ĠOtherwise": 4047,
      "Ġminim": 4048,
      "Ġbet": 4049,
      "Ġreache": 4050,
      "éķ¿": 4051,
      "Ġarithmetic": 4052,
      "ĠRust": 4053,
      "ĠTraverse": 4054,
      "PT": 4055,
      "çī": 4056,
      "ĠDet": 4057,
      "æĢ»": 4058,
      "hif": 4059,
      "xili": 4060,
      "ĠSi": 4061,
      "BFS": 4062,
      "xiliary": 4063,
      "çŃ": 4064,
      "Ġupdating": 4065,
      "Ġdocument": 4066,
      "vant": 4067,
      "achine": 4068,
      "Ġlay": 4069,
      "high": 4070,
      "Ġchat": 4071,
      "Ġauthor": 4072,
      "Ġdecision": 4073,
      "Ġsignificant": 4074,
      "Ġdimensions": 4075,
      "\">": 4076,
      "ification": 4077,
      "Ġhalves": 4078,
      "Ġstoring": 4079,
      "ĠDesign": 4080,
      "uristic": 4081,
      "Sc": 4082,
      "azy": 4083,
      "Ġvalidate": 4084,
      "Main": 4085,
      "]);": 4086,
      "Ġflow": 4087,
      "OD": 4088,
      "hip": 4089,
      "åįķ": 4090,
      "Ġbalanced": 4091,
      "Ġrate": 4092,
      "Ġ||": 4093,
      "Ġinitializes": 4094,
      "gy": 4095,
      "Ġbuilt": 4096,
      "Ġoverl": 4097,
      "ffect": 4098,
      "zero": 4099,
      "ĠOpen": 4100,
      "Ġwhat": 4101,
      "Ġthose": 4102,
      "ĠElement": 4103,
      "é¡": 4104,
      "Ġusername": 4105,
      "hoose": 4106,
      "Ġ\"__": 4107,
      "forward": 4108,
      "solute": 4109,
      "source": 4110,
      "__\":": 4111,
      "Ġmedian": 4112,
      "acro": 4113,
      "books": 4114,
      "Min": 4115,
      "prefix": 4116,
      "Ġ..": 4117,
      "ayment": 4118,
      "ational": 4119,
      "Ġ{:": 4120,
      "Ġfiltered": 4121,
      "Ġspeed": 4122,
      "urther": 4123,
      "ERE": 4124,
      "tection": 4125,
      "Ġpalindrom": 4126,
      "ĠRecursively": 4127,
      "æĿ¡": 4128,
      "ety": 4129,
      "Run": 4130,
      "author": 4131,
      "Ġcollection": 4132,
      "Ġvisualize": 4133,
      "ifference": 4134,
      "Ġassoci": 4135,
      "ĠGiven": 4136,
      "creasing": 4137,
      "here": 4138,
      "Ġpredic": 4139,
      "rt": 4140,
      "Ġ\",": 4141,
      "licity": 4142,
      "Ġdisk": 4143,
      "ees": 4144,
      "è´": 4145,
      "Ġdetected": 4146,
      "Socket": 4147,
      "System": 4148,
      "è¾ĵåħ¥": 4149,
      "reg": 4150,
      "Ġsuccessful": 4151,
      "over": 4152,
      "body": 4153,
      "Ġseveral": 4154,
      "omain": 4155,
      "mplemented": 4156,
      "ĠWorld": 4157,
      "ferences": 4158,
      "missions": 4159,
      "upper": 4160,
      ":\")": 4161,
      "ĠSwift": 4162,
      "Below": 4163,
      "ome": 4164,
      "Empty": 4165,
      "Ġmeasure": 4166,
      "ĠBelow": 4167,
      "ĠResults": 4168,
      "Ġ'.": 4169,
      "Ġcertain": 4170,
      "Ġappears": 4171,
      "arison": 4172,
      "Ġ(!": 4173,
      "off": 4174,
      "Ġstudent": 4175,
      "çŁ©": 4176,
      "æŀĦ": 4177,
      "lt": 4178,
      "Ġaddress": 4179,
      "Ġretrieve": 4180,
      "å¿": 4181,
      "Ġbacktracking": 4182,
      "mmetric": 4183,
      "Ġfit": 4184,
      "æķĪ": 4185,
      "config": 4186,
      "Ġcollect": 4187,
      "bin": 4188,
      "alph": 4189,
      "ank": 4190,
      "vities": 4191,
      "tivities": 4192,
      "Ġunderstanding": 4193,
      "Ġexisting": 4194,
      "anal": 4195,
      "Ġseparate": 4196,
      "area": 4197,
      "Ġmetrics": 4198,
      "Ġ...": 4199,
      "Ext": 4200,
      "Ġenumerate": 4201,
      "bly": 4202,
      "Ġpassed": 4203,
      "äºĨ": 4204,
      "WT": 4205,
      "Ġsimulation": 4206,
      "42": 4207,
      "Ġrules": 4208,
      "åĪĻ": 4209,
      "ables": 4210,
      "Ġdays": 4211,
      "indices": 4212,
      "Import": 4213,
      "pecific": 4214,
      "Ġclos": 4215,
      "Ġlevels": 4216,
      "Ġimplements": 4217,
      "Ġax": 4218,
      "Ġoptimization": 4219,
      "plain": 4220,
      "ital": 4221,
      "dius": 4222,
      "csharp": 4223,
      "ĠBinary": 4224,
      "group": 4225,
      "Ġdf": 4226,
      "Ġå¦Ĥæŀľ": 4227,
      "Ġgrace": 4228,
      "Ġprob": 4229,
      "idx": 4230,
      "false": 4231,
      "Ġwell": 4232,
      "éĶ": 4233,
      "gments": 4234,
      "direct": 4235,
      "Ġappended": 4236,
      "Ġseconds": 4237,
      "Using": 4238,
      "Ġtables": 4239,
      "sql": 4240,
      "Ġdependencies": 4241,
      "sitions": 4242,
      "directed": 4243,
      "Ġmoving": 4244,
      "ically": 4245,
      "Ġassume": 4246,
      "ration": 4247,
      "query": 4248,
      "Ġentries": 4249,
      "Ġbottom": 4250,
      "limit": 4251,
      "ano": 4252,
      "ceed": 4253,
      "Ġsimplicity": 4254,
      "ME": 4255,
      "éĺµ": 4256,
      "leep": 4257,
      "Ġcannot": 4258,
      "Ġfields": 4259,
      "Ġpoly": 4260,
      "SCII": 4261,
      "Ġalways": 4262,
      "åĪĽ": 4263,
      "coded": 4264,
      "Cont": 4265,
      "Ġpacket": 4266,
      "Invalid": 4267,
      "dis": 4268,
      "Ġdone": 4269,
      "ĠUtilize": 4270,
      "Ġinventory": 4271,
      "Ġyield": 4272,
      "ĠVer": 4273,
      "æĸ¹æ³ķ": 4274,
      "Ġexception": 4275,
      "IO": 4276,
      "Ġstop": 4277,
      "Ġnavi": 4278,
      "currency": 4279,
      "double": 4280,
      "Ġ?": 4281,
      "Ġtokens": 4282,
      "Ġguide": 4283,
      "Ġbits": 4284,
      "ats": 4285,
      "Ġencrypt": 4286,
      "response": 4287,
      "Ġ60": 4288,
      "]])": 4289,
      "dist": 4290,
      "Ġconsidering": 4291,
      "ĠLua": 4292,
      "vowels": 4293,
      "Ġ24": 4294,
      "ings": 4295,
      "ride": 4296,
      "Ġ(\"": 4297,
      "wn": 4298,
      "éĩį": 4299,
      "Ġaltern": 4300,
      "ĠPath": 4301,
      "Ġruns": 4302,
      "Ġframework": 4303,
      "Integer": 4304,
      "Rec": 4305,
      "ars": 4306,
      "Ġevaluates": 4307,
      "ĠUI": 4308,
      "results": 4309,
      "çŁ©éĺµ": 4310,
      "aes": 4311,
      "Ġexecuted": 4312,
      "ranch": 4313,
      "AV": 4314,
      "posit": 4315,
      "Ġdescending": 4316,
      "ible": 4317,
      "Ġage": 4318,
      "econd": 4319,
      "sen": 4320,
      "Ġsuccessfully": 4321,
      "ĠReact": 4322,
      "Ġapplied": 4323,
      "Ġrotation": 4324,
      "Ġcomprehension": 4325,
      "anged": 4326,
      "Process": 4327,
      "Ġsynchron": 4328,
      "Ġbetter": 4329,
      "_{": 4330,
      "Ġworld": 4331,
      "lish": 4332,
      "Ġcombinations": 4333,
      "Ġadap": 4334,
      "Bo": 4335,
      "åĲĮ": 4336,
      "Ġrect": 4337,
      "Ġ`['": 4338,
      "ancing": 4339,
      "Ġminimal": 4340,
      "ĠSplit": 4341,
      "éĿ": 4342,
      "Ġstrategies": 4343,
      "Ġlabel": 4344,
      "diff": 4345,
      "Config": 4346,
      "LO": 4347,
      "Ġvia": 4348,
      "Ġconverts": 4349,
      "Handle": 4350,
      "Ġleveraging": 4351,
      "Ġoutputs": 4352,
      "connected": 4353,
      "version": 4354,
      "ĠWith": 4355,
      "dfs": 4356,
      "Ġasynchronous": 4357,
      "Ġgracefully": 4358,
      "Ġcapt": 4359,
      "åĪĽå»º": 4360,
      "rest": 4361,
      "paths": 4362,
      "Ġcalculation": 4363,
      "Ġwrit": 4364,
      "Ġslice": 4365,
      "[::-": 4366,
      "ral": 4367,
      "chars": 4368,
      "change": 4369,
      "show": 4370,
      "last": 4371,
      "Ġfurther": 4372,
      "ĠProgramming": 4373,
      "Ġbucket": 4374,
      "frequency": 4375,
      "substring": 4376,
      "duces": 4377,
      "åıĸ": 4378,
      "suming": 4379,
      "IF": 4380,
      "digit": 4381,
      "ç±": 4382,
      "Ġplan": 4383,
      "pairs": 4384,
      "orrow": 4385,
      "ĠServer": 4386,
      "Constraints": 4387,
      "replace": 4388,
      "'))": 4389,
      "duction": 4390,
      "Ġdifferences": 4391,
      "Ġren": 4392,
      "Ġissues": 4393,
      "mean": 4394,
      "æµ": 4395,
      "front": 4396,
      "):**": 4397,
      "Ġsatisfies": 4398,
      "Client": 4399,
      "close": 4400,
      "itch": 4401,
      "Ġloops": 4402,
      "als": 4403,
      "çº": 4404,
      "Table": 4405,
      "dequeue": 4406,
      "Ġflex": 4407,
      "Ġimages": 4408,
      "ĠMulti": 4409,
      "ĠConstruct": 4410,
      "åħĪ": 4411,
      "Event": 4412,
      "Reg": 4413,
      "Ĥ¨": 4414,
      "åĪĿå§ĭåĮĸ": 4415,
      "counter": 4416,
      "Ġtaken": 4417,
      "Ġcombination": 4418,
      "Ġawait": 4419,
      "like": 4420,
      "threshold": 4421,
      "Ġ{\"": 4422,
      "ĠRepresentation": 4423,
      "éĽ": 4424,
      "ĠRetrie": 4425,
      "Ġclasses": 4426,
      "cycle": 4427,
      "ç©": 4428,
      "open": 4429,
      "Ġlanguage": 4430,
      "Ġ\\),": 4431,
      "Ġauxiliary": 4432,
      "html": 4433,
      "ĠWeb": 4434,
      "fication": 4435,
      "subarray": 4436,
      "ĠAdjust": 4437,
      "ĠMatrix": 4438,
      "Get": 4439,
      "Python": 4440,
      "Case": 4441,
      "ĠReg": 4442,
      "æ±Ĥ": 4443,
      "mplate": 4444,
      "Ġgenerates": 4445,
      "Ġexcep": 4446,
      "åĮħ": 4447,
      "Ġexceptions": 4448,
      "ä¸ŃçļĦ": 4449,
      "dget": 4450,
      "types": 4451,
      "Service": 4452,
      "Ġremoved": 4453,
      "Ġjsonify": 4454,
      "reduce": 4455,
      "Ġbreakdown": 4456,
      "Ġpandas": 4457,
      "æĪĸ": 4458,
      "riteria": 4459,
      "\\),": 4460,
      "Matrix": 4461,
      "cc": 4462,
      "hn": 4463,
      "ditional": 4464,
      "ost": 4465,
      "ä»¥ä¸ĭ": 4466,
      "seq": 4467,
      "Ġvisit": 4468,
      "!\")": 4469,
      "dules": 4470,
      "æĮĩ": 4471,
      "Inter": 4472,
      "UI": 4473,
      "ĠçļĦ": 4474,
      "Ġiterating": 4475,
      "Ġconstant": 4476,
      "tification": 4477,
      "mployee": 4478,
      "ĠAppend": 4479,
      "æĿĤ": 4480,
      "unwrap": 4481,
      "generate": 4482,
      "CP": 4483,
      "display": 4484,
      "zz": 4485,
      "å¤įæĿĤ": 4486,
      "ĠText": 4487,
      "Ġfill": 4488,
      "Ġenhance": 4489,
      "Optim": 4490,
      "float": 4491,
      "Model": 4492,
      "ãĢģ": 4493,
      "=(": 4494,
      "Ġletters": 4495,
      "Ġparticular": 4496,
      "now": 4497,
      "ĠReverse": 4498,
      "ategy": 4499,
      "factor": 4500,
      "Ġintervals": 4501,
      "lines": 4502,
      "Ġwidth": 4503,
      "unct": 4504,
      "ister": 4505,
      "scale": 4506,
      "ffix": 4507,
      "traction": 4508,
      "Ġterms": 4509,
      "Ġrepl": 4510,
      "2023": 4511,
      "Ġpage": 4512,
      "Ġcommunication": 4513,
      "14": 4514,
      "Ġ</": 4515,
      "Ġprior": 4516,
      "memory": 4517,
      "reen": 4518,
      "Binary": 4519,
      "Ġchoice": 4520,
      "Ġcustomer": 4521,
      "entially": 4522,
      "sim": 4523,
      "tc": 4524,
      "Ġfunc": 4525,
      "ever": 4526,
      "hem": 4527,
      "æĿ¡ä»¶": 4528,
      "grams": 4529,
      "pi": 4530,
      "LinkedList": 4531,
      "np": 4532,
      "æĸĩ": 4533,
      "quick": 4534,
      "Ġ`/": 4535,
      "acing": 4536,
      "ategory": 4537,
      "ç§»": 4538,
      "Ġobtain": 4539,
      "eq": 4540,
      "this": 4541,
      "Ġswaps": 4542,
      "route": 4543,
      "ĠAr": 4544,
      "net": 4545,
      "èµ": 4546,
      "ĠConfig": 4547,
      "cending": 4548,
      "Ġdb": 4549,
      "Implementation": 4550,
      "Ġos": 4551,
      "ehicle": 4552,
      "ĠHelper": 4553,
      "Ġfactors": 4554,
      "erson": 4555,
      "peat": 4556,
      "`ãĢĤ": 4557,
      "day": 4558,
      "æķ´æķ°": 4559,
      "divid": 4560,
      "Ġmechanism": 4561,
      "ĠDemonstrate": 4562,
      "Ġredund": 4563,
      "ç±»": 4564,
      "ä¸¤ä¸ª": 4565,
      "Ġcoordinates": 4566,
      "åĤ¨": 4567,
      "Ġincremented": 4568,
      "ĠMap": 4569,
      "Ġsensor": 4570,
      "anoi": 4571,
      "Ġinsi": 4572,
      "apped": 4573,
      "defined": 4574,
      "æłĳ": 4575,
      "ough": 4576,
      "Ġaccepts": 4577,
      "onent": 4578,
      "Ġobser": 4579,
      "WS": 4580,
      "sample": 4581,
      "Ġcircular": 4582,
      "ĠAES": 4583,
      "Ġvisualization": 4584,
      "Ġbutton": 4585,
      "æī¾åĪ°": 4586,
      "umulative": 4587,
      "ternal": 4588,
      "rucial": 4589,
      "é¢ĺ": 4590,
      "cpp": 4591,
      "ĠKEY": 4592,
      "mer": 4593,
      "Ġconnect": 4594,
      "ĠDetermine": 4595,
      "Ġnth": 4596,
      "SQL": 4597,
      "Ġexpon": 4598,
      "Ġstructured": 4599,
      "andid": 4600,
      "Ġsal": 4601,
      "Ġobstac": 4602,
      "Ġput": 4603,
      "Ġdirection": 4604,
      "æį¢": 4605,
      "ales": 4606,
      "Object": 4607,
      "Ġfeedback": 4608,
      "=$": 4609,
      "clojure": 4610,
      "Ġ++": 4611,
      "Ġprints": 4612,
      "Ġcrucial": 4613,
      "traversal": 4614,
      "çİ¯": 4615,
      "frac": 4616,
      "Ġmonth": 4617,
      "Ġlabels": 4618,
      "éĺŁ": 4619,
      "ELL": 4620,
      "äºĮ": 4621,
      "åŃĺåĤ¨": 4622,
      "Ġregression": 4623,
      "Ġblocks": 4624,
      "CH": 4625,
      "lease": 4626,
      "ç©º": 4627,
      "Ġextrac": 4628,
      "Ġmultipl": 4629,
      "ROM": 4630,
      "Filter": 4631,
      "lobal": 4632,
      "Ġsquares": 4633,
      "Ġabsolute": 4634,
      "Ġdisks": 4635,
      "emp": 4636,
      "Ġimplemented": 4637,
      "filename": 4638,
      "info": 4639,
      "13": 4640,
      "Ġspecial": 4641,
      "fied": 4642,
      "ĠThread": 4643,
      "JU": 4644,
      "async": 4645,
      "Ġabs": 4646,
      "Ġnumeric": 4647,
      "ĠGener": 4648,
      "ĠHTML": 4649,
      "ĠThen": 4650,
      "ĠâĢĶ": 4651,
      "localhost": 4652,
      "Ġabout": 4653,
      "Ġ`:": 4654,
      "Ġrecords": 4655,
      "ĠFilter": 4656,
      "ref": 4657,
      "ĠASCII": 4658,
      "ION": 4659,
      "Ġ''.": 4660,
      "Ġhour": 4661,
      "ĠHas": 4662,
      "Ġunit": 4663,
      "fetch": 4664,
      "Ġgreedy": 4665,
      "ĠThese": 4666,
      "ĠValueError": 4667,
      "roller": 4668,
      "Ġ;": 4669,
      "ĠMark": 4670,
      "40": 4671,
      "Squ": 4672,
      "ĠEl": 4673,
      "desc": 4674,
      "light": 4675,
      "å¼ķ": 4676,
      "Ġmatplotlib": 4677,
      "Ġrear": 4678,
      "New": 4679,
      "}:": 4680,
      "Ġeasy": 4681,
      "rig": 4682,
      "LECT": 4683,
      "degree": 4684,
      "multiply": 4685,
      "ĠLibraries": 4686,
      "RIPT": 4687,
      "ghts": 4688,
      "aster": 4689,
      "Ġexten": 4690,
      "freq": 4691,
      "ĠScala": 4692,
      "Ġreducing": 4693,
      "leq": 4694,
      "Ġassigned": 4695,
      "Ġrod": 4696,
      "tocol": 4697,
      "Ġduplicate": 4698,
      "Ġdistribution": 4699,
      "Ġrecon": 4700,
      "road": 4701,
      "Ġincoming": 4702,
      "Ġapplies": 4703,
      "Ġ26": 4704,
      "problem": 4705,
      "æĢģ": 4706,
      "Ġrequires": 4707,
      "cout": 4708,
      "orst": 4709,
      "ĠException": 4710,
      "æĽ´æĸ°": 4711,
      "Ġsublist": 4712,
      "commend": 4713,
      "frame": 4714,
      "Stream": 4715,
      "ĠBe": 4716,
      "æĪ·": 4717,
      "Ġactions": 4718,
      "Ar": 4719,
      "Counter": 4720,
      "åĿ": 4721,
      "itu": 4722,
      "bl": 4723,
      "swift": 4724,
      "ibrary": 4725,
      "Ġpredict": 4726,
      "Ġhigher": 4727,
      "é«": 4728,
      "Ġdesigned": 4729,
      "é«ĺ": 4730,
      "Ġfiltering": 4731,
      "Ġscheduling": 4732,
      "var": 4733,
      "Ġattempts": 4734,
      "ĠDetailed": 4735,
      "Simul": 4736,
      "Ġstores": 4737,
      "Ġhttp": 4738,
      "come": 4739,
      "encrypted": 4740,
      "Bob": 4741,
      "sentence": 4742,
      "Ġcalculating": 4743,
      "adding": 4744,
      "logical": 4745,
      "Ġautomatically": 4746,
      "Ġcells": 4747,
      "Ġtechnique": 4748,
      "Ġcrypto": 4749,
      "Ġasync": 4750,
      "ĠAssume": 4751,
      "prices": 4752,
      "Ġparsing": 4753,
      "cont": 4754,
      "ĠCounter": 4755,
      "æıĲ": 4756,
      "Ġ`[\"": 4757,
      "åĽ¾": 4758,
      "ppose": 4759,
      "Ġ]": 4760,
      "Ġder": 4761,
      "éĢĴ": 4762,
      "Ġindivid": 4763,
      "gan": 4764,
      "adjacency": 4765,
      "ĠManagement": 4766,
      "ĠState": 4767,
      "()`.": 4768,
      "Ġam": 4769,
      "Ġstra": 4770,
      "ĠAnalyze": 4771,
      "Ġmachine": 4772,
      "ohn": 4773,
      "Ġinorder": 4774,
      "Ġ)": 4775,
      "IR": 4776,
      "Ġexit": 4777,
      "Ġcomparing": 4778,
      "alled": 4779,
      "çĽ¸": 4780,
      "éĢī": 4781,
      "Ġdecrypt": 4782,
      "Prime": 4783,
      "ĠNew": 4784,
      "ĠSample": 4785,
      "ĠPlot": 4786,
      "Ġ${": 4787,
      "users": 4788,
      "ume": 4789,
      "etic": 4790,
      "Understanding": 4791,
      "ç»Ļ": 4792,
      "color": 4793,
      "ider": 4794,
      ">`": 4795,
      "Ġshif": 4796,
      "Ġheuristic": 4797,
      "Ġ(-": 4798,
      "è°": 4799,
      "è®°": 4800,
      "ustr": 4801,
      "AVA": 4802,
      "Ġbi": 4803,
      "Ġrecord": 4804,
      "ç¡®ä¿Ŀ": 4805,
      "Ġapplying": 4806,
      "ä¹ī": 4807,
      "module": 4808,
      "èĢ": 4809,
      "Token": 4810,
      "Ġcounting": 4811,
      "æ·": 4812,
      "ĠOperations": 4813,
      "ense": 4814,
      "Ġroute": 4815,
      "Equal": 4816,
      "Ġcompared": 4817,
      "ĠNow": 4818,
      "urations": 4819,
      ":.": 4820,
      "JAVA": 4821,
      "reation": 4822,
      "Gener": 4823,
      "ĠChoose": 4824,
      "Ġaround": 4825,
      "secon": 4826,
      "instance": 4827,
      "edia": 4828,
      "Ġschema": 4829,
      "hematic": 4830,
      "ĠChar": 4831,
      "ĠEdge": 4832,
      "package": 4833,
      "Ġlogin": 4834,
      "asic": 4835,
      "Ġexceeds": 4836,
      "Ġpy": 4837,
      "Ġmaximize": 4838,
      "rotate": 4839,
      "Ġknown": 4840,
      "most": 4841,
      "keys": 4842,
      "Ġrequirements": 4843,
      "Ġseen": 4844,
      "å®ļä¹ī": 4845,
      "lis": 4846,
      "longest": 4847,
      "Size": 4848,
      "åŁ": 4849,
      "ĠId": 4850,
      "ĠMST": 4851,
      "å½Ĵ": 4852,
      "Ġsimpl": 4853,
      "éĹ®é¢ĺ": 4854,
      "ĠAut": 4855,
      "Ġsimulates": 4856,
      "Ġstraight": 4857,
      "Ġdefaultdict": 4858,
      "Ġundirected": 4859,
      "çĶŁ": 4860,
      "oubly": 4861,
      "dered": 4862,
      "éĽĨ": 4863,
      "è¶": 4864,
      "Ro": 4865,
      "apply": 4866,
      "ĠTraversal": 4867,
      "Ġreference": 4868,
      "Ġdeletion": 4869,
      "Ġminimize": 4870,
      "Ġblockchain": 4871,
      "ĠGCD": 4872,
      "è¡¨ç¤º": 4873,
      "Ġcosts": 4874,
      "llustr": 4875,
      "Ġconn": 4876,
      "Ġdefines": 4877,
      "=['": 4878,
      "Ġlim": 4879,
      "JSON": 4880,
      "Ġjoin": 4881,
      "null": 4882,
      "Ġ90": 4883,
      "rust": 4884,
      "Ġmade": 4885,
      "aving": 4886,
      "Ġmanages": 4887,
      "è°ĥ": 4888,
      "Ġutilize": 4889,
      "Ġdenom": 4890,
      "ĠDictionary": 4891,
      "ĠHaskell": 4892,
      "ç´¢å¼ķ": 4893,
      "dient": 4894,
      "Ġbounds": 4895,
      "alk": 4896,
      "Ġproceed": 4897,
      "ets": 4898,
      "Ġcolors": 4899,
      "ä½įç½®": 4900,
      "æľ¬": 4901,
      "Ġdeploy": 4902,
      "Ġ>>": 4903,
      "riend": 4904,
      "vanced": 4905,
      "original": 4906,
      "readth": 4907,
      "Ver": 4908,
      "ially": 4909,
      "ĠPHP": 4910,
      "ited": 4911,
      "ĠIP": 4912,
      "åı¯èĥ½": 4913,
      "MA": 4914,
      "Ġmeaning": 4915,
      "uffman": 4916,
      "Ġcriteria": 4917,
      "ectors": 4918,
      "Ġconflic": 4919,
      "Ġattributes": 4920,
      "cher": 4921,
      "(_": 4922,
      "allen": 4923,
      "aive": 4924,
      "Ġstatis": 4925,
      "shift": 4926,
      "Ġconcurrently": 4927,
      "omial": 4928,
      "cols": 4929,
      "files": 4930,
      "Ġ\\[": 4931,
      "Request": 4932,
      "esc": 4933,
      "ĠBack": 4934,
      "ĠRandom": 4935,
      "ritical": 4936,
      "aching": 4937,
      "part": 4938,
      "ĠTypeScript": 4939,
      "ç§į": 4940,
      "aesar": 4941,
      "Ġsugges": 4942,
      "Ġ21": 4943,
      "Ġrelations": 4944,
      "lick": 4945,
      "Ġbegin": 4946,
      "bine": 4947,
      "dir": 4948,
      "Calcul": 4949,
      "ĠParameters": 4950,
      "acc": 4951,
      "åĵ": 4952,
      "Ġslow": 4953,
      "åĨĻ": 4954,
      "Ġvary": 4955,
      "Ġ120": 4956,
      ":]": 4957,
      "pecially": 4958,
      "Ġmakes": 4959,
      "ote": 4960,
      "ä¸Ĭ": 4961,
      "ĠSwap": 4962,
      "execute": 4963,
      "Ġdivisor": 4964,
      "Ġlambda": 4965,
      "éķ¿åº¦": 4966,
      "Ġpermutation": 4967,
      "ĠVisual": 4968,
      "ackages": 4969,
      "square": 4970,
      "å¤įæĿĤåº¦": 4971,
      "Ġproblems": 4972,
      "operations": 4973,
      "Ġfixed": 4974,
      "Reverse": 4975,
      "ĠAllow": 4976,
      "Ġsupports": 4977,
      "Start": 4978,
      ")**:": 4979,
      "ĠRuby": 4980,
      "comb": 4981,
      "ingly": 4982,
      "urse": 4983,
      "Ġnumerical": 4984,
      "Ġpredictions": 4985,
      "omal": 4986,
      "args": 4987,
      "scores": 4988,
      "}\"": 4989,
      "olution": 4990,
      "ĠZ": 4991,
      "box": 4992,
      "[\"": 4993,
      "Ġ80": 4994,
      "Ġespecially": 4995,
      "Character": 4996,
      "ĠLine": 4997,
      "ĠTrack": 4998,
      "Ġfreq": 4999,
      "Ġquantity": 5000,
      "Ġfew": 5001,
      "obj": 5002,
      "kn": 5003,
      "ashboard": 5004,
      "Ġteam": 5005,
      "Ġinstalled": 5006,
      "Ġstates": 5007,
      "rop": 5008,
      "Ġgenerated": 5009,
      "ĠDiv": 5010,
      "reversed": 5011,
      "network": 5012,
      "Ġcalling": 5013,
      "des": 5014,
      "Ġonto": 5015,
      "ongo": 5016,
      "depth": 5017,
      "Println": 5018,
      "Ġrespectively": 5019,
      ".*": 5020,
      "CA": 5021,
      "Mod": 5022,
      "Ġcategory": 5023,
      "chi": 5024,
      "Ġascending": 5025,
      "ĠåĴĮ": 5026,
      "Ġsti": 5027,
      "Ġtran": 5028,
      "ĠOrder": 5029,
      "elixir": 5030,
      "Ġinner": 5031,
      "usted": 5032,
      "ĠInteg": 5033,
      "çİĩ": 5034,
      "Ġemployee": 5035,
      "sor": 5036,
      "site": 5037,
      "ç¼ĸ": 5038,
      "1000": 5039,
      "---": 5040,
      "Ġleading": 5041,
      "Load": 5042,
      "ç»Ļå®ļ": 5043,
      "math": 5044,
      "Ġoption": 5045,
      "åģ": 5046,
      "Ġexperi": 5047,
      "Ġbuilding": 5048,
      "Update": 5049,
      "éĴ": 5050,
      "ĠSimple": 5051,
      "Handler": 5052,
      "ttps": 5053,
      "66": 5054,
      "ĠAll": 5055,
      "Ġtransformations": 5056,
      "ris": 5057,
      "Ġdecrypted": 5058,
      "Ġsent": 5059,
      "graphy": 5060,
      "Ġ~": 5061,
      "\")`": 5062,
      "Ġterm": 5063,
      "Ġdecimal": 5064,
      "åĬ¡": 5065,
      "connect": 5066,
      "Ġfrequencies": 5067,
      "ĠHowever": 5068,
      "});": 5069,
      "lim": 5070,
      "pect": 5071,
      "sidered": 5072,
      "Per": 5073,
      "Scal": 5074,
      "Ġconnec": 5075,
      "Ġtren": 5076,
      "Ġreached": 5077,
      "ĠListNode": 5078,
      "thing": 5079,
      "ĠOnce": 5080,
      "Ġselection": 5081,
      "Ġmember": 5082,
      "ĠContin": 5083,
      "æł¼": 5084,
      "tio": 5085,
      "Efficiency": 5086,
      "tri": 5087,
      "dataset": 5088,
      "ĠDouble": 5089,
      "aded": 5090,
      "ĠKe": 5091,
      "æĪĳä»¬éľĢè¦ģ": 5092,
      "bility": 5093,
      "access": 5094,
      "scala": 5095,
      "Ġprimes": 5096,
      "Ġcollisions": 5097,
      "ĠChecks": 5098,
      "fect": 5099,
      "ĠDynamic": 5100,
      "Ġreceive": 5101,
      "All": 5102,
      "ĠClojure": 5103,
      "Ġbitwise": 5104,
      "æľĢå°ı": 5105,
      "Ġsegments": 5106,
      "ĠThus": 5107,
      "Ġ`.": 5108,
      "å±": 5109,
      "Ġsecurely": 5110,
      "Ġmath": 5111,
      "æł¹": 5112,
      "tig": 5113,
      "pyplot": 5114,
      "Space": 5115,
      "poses": 5116,
      "ACK": 5117,
      "fill": 5118,
      "Ġmaze": 5119,
      "æ»": 5120,
      "Ġstraightforward": 5121,
      "format": 5122,
      "Ġwait": 5123,
      "aut": 5124,
      "Ġextends": 5125,
      "æŀĲ": 5126,
      "Ġweighted": 5127,
      ">();": 5128,
      "Ġrank": 5129,
      "tify": 5130,
      "åĨ³": 5131,
      "uzz": 5132,
      "perform": 5133,
      "Ġcross": 5134,
      "typescript": 5135,
      "chan": 5136,
      "Ġround": 5137,
      "depend": 5138,
      "Auth": 5139,
      "ULL": 5140,
      "Ġzeros": 5141,
      "Ġconditional": 5142,
      "Ġaccept": 5143,
      "oku": 5144,
      "ae": 5145,
      "Ġconsidered": 5146,
      "Ġdequeue": 5147,
      "Ġdescription": 5148,
      "posed": 5149,
      "Ġide": 5150,
      "Ġä»£çłģ": 5151,
      "Ġtaking": 5152,
      "Ġperson": 5153,
      "']`.": 5154,
      "hips": 5155,
      "Ġ'{": 5156,
      "Ġ((": 5157,
      "threading": 5158,
      "Ġdatetime": 5159,
      "Ġord": 5160,
      "Dis": 5161,
      "Ġprofit": 5162,
      "HERE": 5163,
      "Ġge": 5164,
      "Ġways": 5165,
      "PS": 5166,
      "Ġè¾ĵåĩº": 5167,
      "vals": 5168,
      "Ġemail": 5169,
      "Ġturn": 5170,
      "ason": 5171,
      "è¾ĳ": 5172,
      "Ġbody": 5173,
      "ĠAWS": 5174,
      "Ġcols": 5175,
      "itoring": 5176,
      "Ġinsights": 5177,
      "moization": 5178,
      "åĨħ": 5179,
      "ĠVari": 5180,
      "ĠREST": 5181,
      "Ġrotated": 5182,
      "POST": 5183,
      "Ġetc": 5184,
      "Construct": 5185,
      "Ġmathematic": 5186,
      "ĠMeasure": 5187,
      "rough": 5188,
      "Ġqueens": 5189,
      "EX": 5190,
      "ones": 5191,
      "å½ķ": 5192,
      "gether": 5193,
      "ĠPriority": 5194,
      "Ġfuture": 5195,
      "Ġlayer": 5196,
      "Ġ32": 5197,
      "character": 5198,
      "heappush": 5199,
      "Content": 5200,
      "Ġoccurs": 5201,
      "ographic": 5202,
      "ĠJWT": 5203,
      "holder": 5204,
      "Ġlocation": 5205,
      "Ġproduce": 5206,
      "buffer": 5207,
      "åŃĲæķ°ç»Ħ": 5208,
      "CREATE": 5209,
      "Ġindividual": 5210,
      "ĠInitialization": 5211,
      "Ġenqueue": 5212,
      "Ġimmedi": 5213,
      "ĠEfficient": 5214,
      "ba": 5215,
      "å¤ļ": 5216,
      "åĬŁ": 5217,
      "Anal": 5218,
      "lation": 5219,
      "Ġcv": 5220,
      "Examples": 5221,
      "Ġsubsets": 5222,
      "Ġredundant": 5223,
      "algorithm": 5224,
      "your": 5225,
      "Merge": 5226,
      "(-": 5227,
      "Ġexpress": 5228,
      "Ġremoves": 5229,
      "ĠDiscuss": 5230,
      "extract": 5231,
      "xor": 5232,
      "vertices": 5233,
      "julia": 5234,
      "ĠComments": 5235,
      "Multi": 5236,
      "Palindrome": 5237,
      "haskell": 5238,
      "tiguous": 5239,
      "ories": 5240,
      "Ġmy": 5241,
      "ĠIncrement": 5242,
      "DB": 5243,
      "Ġoccurrence": 5244,
      "ĠFunctions": 5245,
      "Ġroutes": 5246,
      "shape": 5247,
      "Sorted": 5248,
      "non": 5249,
      "19": 5250,
      "Parse": 5251,
      "åľ°": 5252,
      "Ġwin": 5253,
      "Ġstudents": 5254,
      "Ġsuper": 5255,
      "==": 5256,
      "Ġbl": 5257,
      "Ġmacro": 5258,
      "Ġrotate": 5259,
      "ĠDetection": 5260,
      "ĠOutputs": 5261,
      "Ġcapabilities": 5262,
      "Or": 5263,
      "changed": 5264,
      "ĠPurpose": 5265,
      "riends": 5266,
      "moves": 5267,
      "Ġcombined": 5268,
      "Ġdif": 5269,
      "Ġcities": 5270,
      "Performance": 5271,
      "met": 5272,
      "ĠRo": 5273,
      "Ġloss": 5274,
      "Ġflag": 5275,
      "]):": 5276,
      "\"{": 5277,
      "stit": 5278,
      "orpor": 5279,
      "ĠAddition": 5280,
      "éĢ»": 5281,
      "åħ³": 5282,
      "Ġsimply": 5283,
      "ĠRight": 5284,
      "fety": 5285,
      "ĠPerformance": 5286,
      "éĢ»è¾ĳ": 5287,
      "NA": 5288,
      "idget": 5289,
      "Ġassociated": 5290,
      "sales": 5291,
      "Ġmapping": 5292,
      "ialization": 5293,
      ")],": 5294,
      "Ġindicates": 5295,
      "ĠJavaScript": 5296,
      "ĠCharacter": 5297,
      "åĲĳ": 5298,
      "Ġgroups": 5299,
      "Ġactivities": 5300,
      "decode": 5301,
      "umns": 5302,
      "crease": 5303,
      "!(\"": 5304,
      "Ġbene": 5305,
      "https": 5306,
      "Ġtools": 5307,
      "cryption": 5308,
      "çĶ¨æĪ·": 5309,
      "dden": 5310,
      "Ġroom": 5311,
      "Ġsafely": 5312,
      "pological": 5313,
      "Ġdraw": 5314,
      "éĻ¤": 5315,
      "Ġoverflow": 5316,
      "Ġcumulative": 5317,
      "Ġreco": 5318,
      "products": 5319,
      "Back": 5320,
      "method": 5321,
      "Ġshape": 5322,
      "Ġexplain": 5323,
      "GET": 5324,
      "ĠBlock": 5325,
      "Ġillustr": 5326,
      "Image": 5327,
      "ucl": 5328,
      "Ġrender": 5329,
      "On": 5330,
      "Ġful": 5331,
      "way": 5332,
      "18": 5333,
      "store": 5334,
      "predict": 5335,
      "Ġrele": 5336,
      "irements": 5337,
      "Ġreceived": 5338,
      "uter": 5339,
      "Ġhy": 5340,
      "ĠNecessary": 5341,
      "Ġrecommend": 5342,
      "æµĭ": 5343,
      "uation": 5344,
      "\"}": 5345,
      "link": 5346,
      "éĶ®": 5347,
      "ä»»": 5348,
      "location": 5349,
      "++;": 5350,
      "Ġskip": 5351,
      "è¾¹": 5352,
      "Ġlight": 5353,
      "eek": 5354,
      "izations": 5355,
      "Ġtransfer": 5356,
      "ABLE": 5357,
      "Ġresiz": 5358,
      "Ġdirections": 5359,
      ")}": 5360,
      "Ġactivity": 5361,
      "ĠSorting": 5362,
      "Ġduration": 5363,
      "largest": 5364,
      "initial": 5365,
      "abcdef": 5366,
      "SELECT": 5367,
      "Ġanalyz": 5368,
      "Ġtogether": 5369,
      "sqrt": 5370,
      "ĠReplace": 5371,
      "90": 5372,
      "ĠElements": 5373,
      "æłĪ": 5374,
      "handle": 5375,
      "ĠEvaluate": 5376,
      "iform": 5377,
      "Ġlink": 5378,
      "Ġsettings": 5379,
      "\\[": 5380,
      "Ġdemonstration": 5381,
      "quer": 5382,
      "å¼Ģ": 5383,
      "78": 5384,
      "Ġaggre": 5385,
      "Ġfn": 5386,
      "Ġsummary": 5387,
      "utable": 5388,
      "Ġdeci": 5389,
      "Ġshell": 5390,
      "dec": 5391,
      "ground": 5392,
      "ä¸Ģä¸ªåĩ½æķ°": 5393,
      "Ġsubproblem": 5394,
      "Ġproducer": 5395,
      "Ġcorrectness": 5396,
      "Ġbudget": 5397,
      ".\");": 5398,
      "Ġimpact": 5399,
      "Ġsearching": 5400,
      "ĠPop": 5401,
      "Ġfilters": 5402,
      "Ġener": 5403,
      "Ġretrieval": 5404,
      "imp": 5405,
      "ribe": 5406,
      "FI": 5407,
      "ĠAV": 5408,
      "**.": 5409,
      "Build": 5410,
      "Ġcontinues": 5411,
      "åħ¸": 5412,
      "Ġfocus": 5413,
      "ret": 5414,
      "Ġquickly": 5415,
      "abor": 5416,
      "Ġlead": 5417,
      "abs": 5418,
      "ARCH": 5419,
      "Ġ\"\"": 5420,
      "éĺŁåĪĹ": 5421,
      "views": 5422,
      "arly": 5423,
      "âĶ": 5424,
      "udoku": 5425,
      "Vector": 5426,
      "Ġchecked": 5427,
      "ĠRetrieve": 5428,
      "ĠRSA": 5429,
      "sleep": 5430,
      "numer": 5431,
      "Ġevaluation": 5432,
      "Ġpipeline": 5433,
      "Method": 5434,
      "tains": 5435,
      "Ġpurch": 5436,
      "Ġconsists": 5437,
      "Ġmerges": 5438,
      "Ġsave": 5439,
      "Ġallocation": 5440,
      "è®¾è®¡": 5441,
      "ĠDelete": 5442,
      "ĠUtilizes": 5443,
      "fi": 5444,
      "éĢĴå½Ĵ": 5445,
      "sk": 5446,
      "Ġcontiguous": 5447,
      "mar": 5448,
      "ĠPost": 5449,
      "Ġgenerator": 5450,
      "Ġenergy": 5451,
      "DataFrame": 5452,
      "Ġidx": 5453,
      "pr": 5454,
      "request": 5455,
      "Ġ'(": 5456,
      "Ġcorner": 5457,
      "PU": 5458,
      "ĠTotal": 5459,
      "Ġswitch": 5460,
      "vec": 5461,
      "sump": 5462,
      "ĠValidate": 5463,
      "Not": 5464,
      "Ġinside": 5465,
      "shortest": 5466,
      "Ġconversion": 5467,
      "DE": 5468,
      "sets": 5469,
      "Ġscanner": 5470,
      "expression": 5471,
      "ĠStandard": 5472,
      "pare": 5473,
      "æĪĳä»¬åı¯ä»¥": 5474,
      "Bal": 5475,
      "ĠRacket": 5476,
      "orter": 5477,
      "ĠMath": 5478,
      "Ġdead": 5479,
      "Identify": 5480,
      "rus": 5481,
      "Ġvarying": 5482,
      "encrypt": 5483,
      "è®¿": 5484,
      "])`": 5485,
      "Ġprecision": 5486,
      "Ġslic": 5487,
      "Ġinstances": 5488,
      "Loop": 5489,
      "Ġpeak": 5490,
      "22": 5491,
      "YY": 5492,
      "untered": 5493,
      "Ġunion": 5494,
      "Insert": 5495,
      "ste": 5496,
      "è®¿éĹ®": 5497,
      "Ġeasily": 5498,
      "æĭ©": 5499,
      "eting": 5500,
      "éĢīæĭ©": 5501,
      "ĠAR": 5502,
      "weather": 5503,
      "Ġvec": 5504,
      "ert": 5505,
      "ĠMaximum": 5506,
      "\"]`.": 5507,
      "utf": 5508,
      "Ġparticularly": 5509,
      "Ġintersection": 5510,
      "Ġsafety": 5511,
      "Ġpurposes": 5512,
      "Ġiteratively": 5513,
      "åĲ«": 5514,
      "Ġlayout": 5515,
      "ĠUsed": 5516,
      "ided": 5517,
      "Ġlex": 5518,
      "([[": 5519,
      "car": 5520,
      "hour": 5521,
      "Context": 5522,
      "Ġaccordingly": 5523,
      "Class": 5524,
      "Ġforeach": 5525,
      "éĿ¢": 5526,
      "readed": 5527,
      "names": 5528,
      "Ġencountered": 5529,
      "Ġ($": 5530,
      "Be": 5531,
      "ĠJulia": 5532,
      "pload": 5533,
      "Button": 5534,
      "echo": 5535,
      "Ġlisten": 5536,
      "çķ": 5537,
      "SI": 5538,
      "Ġbranch": 5539,
      "Ġdevice": 5540,
      "ench": 5541,
      "Ġendpoint": 5542,
      "page": 5543,
      "ĠIN": 5544,
      "Ġforward": 5545,
      "peek": 5546,
      "Ġplaced": 5547,
      "å¯Ĩ": 5548,
      "Ġdemonstrating": 5549,
      "60": 5550,
      "brid": 5551,
      "service": 5552,
      "Ġ_,": 5553,
      "tected": 5554,
      "defn": 5555,
      "Sorting": 5556,
      "balanced": 5557,
      "wt": 5558,
      "ective": 5559,
      "Ġformatted": 5560,
      "Ġess": 5561,
      "call": 5562,
      "year": 5563,
      "éĵ": 5564,
      "Ġending": 5565,
      "mode": 5566,
      "ĠTok": 5567,
      "Ġchosen": 5568,
      "alls": 5569,
      "Ġorders": 5570,
      "spec": 5571,
      "directory": 5572,
      "ruby": 5573,
      "ĠName": 5574,
      "Ġ];": 5575,
      "Ġattempt": 5576,
      "Dig": 5577,
      "Ġradius": 5578,
      "tifications": 5579,
      "DP": 5580,
      "Fibonacci": 5581,
      "æĥ": 5582,
      "ĠEnvironment": 5583,
      "OIN": 5584,
      "OL": 5585,
      "heses": 5586,
      "lua": 5587,
      "Ġmathematical": 5588,
      "ĠIO": 5589,
      "Ġcar": 5590,
      "bst": 5591,
      "Ġstill": 5592,
      "Ġcomprehensive": 5593,
      "Remove": 5594,
      "Ġmaps": 5595,
      "').": 5596,
      "coding": 5597,
      "utter": 5598,
      "ĠBuild": 5599,
      "ĠNULL": 5600,
      "hist": 5601,
      "idity": 5602,
      "Ne": 5603,
      "mag": 5604,
      "Ġana": 5605,
      "ands": 5606,
      "dates": 5607,
      "ARCHAR": 5608,
      "Ġtrees": 5609,
      "Ġregex": 5610,
      "Ġrespective": 5611,
      "ĠRequired": 5612,
      "Ġexclu": 5613,
      "olume": 5614,
      "Ġdict": 5615,
      "åĲİçļĦ": 5616,
      "ĠTABLE": 5617,
      "timestamp": 5618,
      "begin": 5619,
      "artment": 5620,
      "Ġtracking": 5621,
      "rup": 5622,
      "ĠFill": 5623,
      "button": 5624,
      "Ġholds": 5625,
      "If": 5626,
      "Total": 5627,
      "Ġperforming": 5628,
      "At": 5629,
      "Password": 5630,
      "antum": 5631,
      "éħ": 5632,
      "Ġunchanged": 5633,
      "isor": 5634,
      "feature": 5635,
      "Ġstacks": 5636,
      "bits": 5637,
      "features": 5638,
      "else": 5639,
      "Ġign": 5640,
      "grees": 5641,
      "ĠImp": 5642,
      "Ġdiscount": 5643,
      "Ġpalindromic": 5644,
      "rear": 5645,
      "idean": 5646,
      "doc": 5647,
      "Ġchunk": 5648,
      "ĠImage": 5649,
      "Ġsq": 5650,
      "Note": 5651,
      "sible": 5652,
      "éĵ¾": 5653,
      "column": 5654,
      "icro": 5655,
      "(\\": 5656,
      "imation": 5657,
      "åŃĹåħ¸": 5658,
      "planations": 5659,
      "uclidean": 5660,
      "irm": 5661,
      "åĮħåĲ«": 5662,
      "Account": 5663,
      "Ġservices": 5664,
      "ĠAdds": 5665,
      "plits": 5666,
      "ĠDepth": 5667,
      "åĬŁèĥ½": 5668,
      "Ġhealth": 5669,
      "while": 5670,
      "ĠTCP": 5671,
      "æĬ": 5672,
      "éħį": 5673,
      "Ġprimary": 5674,
      "env": 5675,
      "ĠTwo": 5676,
      "TY": 5677,
      "Ġ19": 5678,
      "Ġcontinuous": 5679,
      "Ġreconstruct": 5680,
      "Ġeffective": 5681,
      "Ġremainder": 5682,
      "Ġconverting": 5683,
      "ä¸İ": 5684,
      "ĠDevelop": 5685,
      "RUD": 5686,
      "Ġarchi": 5687,
      "redential": 5688,
      "dart": 5689,
      "arrays": 5690,
      "Ġprinted": 5691,
      "loop": 5692,
      "centage": 5693,
      "Ġmaintains": 5694,
      "ĠPoints": 5695,
      "Pair": 5696,
      "Priority": 5697,
      "Ġreli": 5698,
      "Ġoffer": 5699,
      "Handling": 5700,
      "Ġcritical": 5701,
      "Ġinf": 5702,
      "Post": 5703,
      "ĠAVL": 5704,
      "\"])": 5705,
      "session": 5706,
      "andidate": 5707,
      "iou": 5708,
      "Ġdevices": 5709,
      "Ġchannel": 5710,
      "ctionaries": 5711,
      "oint": 5712,
      "Ġincrease": 5713,
      "cipher": 5714,
      "çĽ®æłĩ": 5715,
      "auth": 5716,
      "system": 5717,
      "Ġvery": 5718,
      "è§£åĨ³": 5719,
      "\\_": 5720,
      "arest": 5721,
      "exist": 5722,
      "ĠScript": 5723,
      "object": 5724,
      "power": 5725,
      "library": 5726,
      "temperature": 5727,
      "Ġ22": 5728,
      "Pattern": 5729,
      "\"],": 5730,
      "ĠAI": 5731,
      ")**": 5732,
      "enchmark": 5733,
      "Ġcircle": 5734,
      "orout": 5735,
      "è®°å½ķ": 5736,
      "heappop": 5737,
      "çŃī": 5738,
      "Response": 5739,
      "ä»¥ä¸ĭæĺ¯": 5740,
      "Imp": 5741,
      "Ġ(=": 5742,
      "ka": 5743,
      "ĠElixir": 5744,
      "unks": 5745,
      "Ġencoding": 5746,
      "Ġconson": 5747,
      "transaction": 5748,
      "ectangle": 5749,
      "increment": 5750,
      "gon": 5751,
      "Ġdetermines": 5752,
      "Ġsuffix": 5753,
      "Ġinteractions": 5754,
      "Database": 5755,
      "vable": 5756,
      "Ġamong": 5757,
      "ĠCollect": 5758,
      "AT": 5759,
      "ĠVARCHAR": 5760,
      "Ġcompression": 5761,
      "Ġconsistent": 5762,
      "Ġoptimizing": 5763,
      "mask": 5764,
      "Reading": 5765,
      "Price": 5766,
      "bucket": 5767,
      "bar": 5768,
      "ĠBoth": 5769,
      "terest": 5770,
      "ĠNetwork": 5771,
      "Ġbox": 5772,
      "utor": 5773,
      "entical": 5774,
      "))))": 5775,
      "kit": 5776,
      "clust": 5777,
      "unctuation": 5778,
      "æģ": 5779,
      "sche": 5780,
      "Ġcontents": 5781,
      "Ġbytes": 5782,
      "Ġformed": 5783,
      "Lock": 5784,
      "ĠSend": 5785,
      "raction": 5786,
      "ĠXML": 5787,
      "attery": 5788,
      "Ġdon": 5789,
      "Ġreduces": 5790,
      "parti": 5791,
      "Ġ42": 5792,
      "Ġwere": 5793,
      "ĠMod": 5794,
      "ficult": 5795,
      "Ġconstraint": 5796,
      "æ¯Ķ": 5797,
      "Problem": 5798,
      "Ġnat": 5799,
      "ym": 5800,
      "Cycle": 5801,
      "ĠDate": 5802,
      "Ġthus": 5803,
      "Enter": 5804,
      "çĶŁæĪĲ": 5805,
      "any": 5806,
      "lassi": 5807,
      "Ġsocial": 5808,
      "Ġvis": 5809,
      "ogle": 5810,
      "stead": 5811,
      "second": 5812,
      "Ġwhose": 5813,
      "rusk": 5814,
      "Ġ55": 5815,
      "Ġinfinity": 5816,
      "aneous": 5817,
      "Ġcart": 5818,
      "structed": 5819,
      "å¾ª": 5820,
      "ensitive": 5821,
      "ĠRepresents": 5822,
      "roadcast": 5823,
      "efficients": 5824,
      "ality": 5825,
      "Ġperformed": 5826,
      "seen": 5827,
      "Ġcenter": 5828,
      "Generate": 5829,
      "average": 5830,
      "Ġinteraction": 5831,
      "ĠLeft": 5832,
      "»åĬł": 5833,
      "mapho": 5834,
      "ptr": 5835,
      "ĠMon": 5836,
      "Setup": 5837,
      "iod": 5838,
      "(\"\\": 5839,
      "Ġallowed": 5840,
      "tual": 5841,
      "æ·»åĬł": 5842,
      "Ġran": 5843,
      "Ġhandled": 5844,
      "ticip": 5845,
      "catenate": 5846,
      "Ġsquared": 5847,
      "åıĬ": 5848,
      ".*;": 5849,
      "Ġ45": 5850,
      "Algorithm": 5851,
      "ruskal": 5852,
      "Ġinteractive": 5853,
      "101": 5854,
      "compute": 5855,
      "Ġpos": 5856,
      "ĠClient": 5857,
      "Ġiterations": 5858,
      "Ġsubtract": 5859,
      "Ġworst": 5860,
      "since": 5861,
      "'re": 5862,
      "Ġschedule": 5863,
      "emperature": 5864,
      "Ġdeal": 5865,
      "Ġold": 5866,
      "Ġrole": 5867,
      "URL": 5868,
      "ARY": 5869,
      "}'": 5870,
      "Ġbfs": 5871,
      "Ġcompletion": 5872,
      "Elements": 5873,
      "imeter": 5874,
      "Ġconfigurations": 5875,
      "common": 5876,
      "éĤ": 5877,
      "ancial": 5878,
      "Ġedit": 5879,
      "pip": 5880,
      "Ġ\")": 5881,
      "Ġalphabetic": 5882,
      "Ġsty": 5883,
      "èĩ": 5884,
      "atency": 5885,
      "ĠSign": 5886,
      "OU": 5887,
      "Over": 5888,
      "ĠEnsures": 5889,
      "Ġstrong": 5890,
      "ĠProject": 5891,
      "'].": 5892,
      "ultaneous": 5893,
      "Ġ);": 5894,
      "Ġincrements": 5895,
      "rd": 5896,
      "cker": 5897,
      "Ġmanner": 5898,
      "Ġtypically": 5899,
      "rength": 5900,
      "21": 5901,
      "Ġcomputing": 5902,
      "å¢": 5903,
      "redentials": 5904,
      "fits": 5905,
      "Ġsynchronization": 5906,
      "Ġcompares": 5907,
      "åĻ": 5908,
      "Ġcomparisons": 5909,
      "åºĶçĶ¨": 5910,
      "Ġtyping": 5911,
      "Ġpick": 5912,
      "Ġclassification": 5913,
      "Ġminutes": 5914,
      "accur": 5915,
      "Ġfailure": 5916,
      "icographic": 5917,
      "validate": 5918,
      "Ġobstacles": 5919,
      "ĠSelect": 5920,
      "Ġcapture": 5921,
      "ORT": 5922,
      "Odd": 5923,
      "ĠKeep": 5924,
      "Ġ[('": 5925,
      "Ġreversing": 5926,
      "Ġposts": 5927,
      "å¯¹äºİ": 5928,
      "stock": 5929,
      "ĠNormal": 5930,
      "maze": 5931,
      "ggle": 5932,
      "')`": 5933,
      "jects": 5934,
      "lite": 5935,
      "Ġorgan": 5936,
      "Ġdelay": 5937,
      "Ġsymmetric": 5938,
      "Ġbackup": 5939,
      "report": 5940,
      "Clo": 5941,
      "gcd": 5942,
      "Ġ})": 5943,
      "èµ·": 5944,
      "separ": 5945,
      "ĠLinear": 5946,
      "åĻ¨": 5947,
      "Each": 5948,
      "MARY": 5949,
      "Ġscreen": 5950,
      "Ġtw": 5951,
      "player": 5952,
      "Ġfunctionalities": 5953,
      "ĠIdentify": 5954,
      "Ġoptions": 5955,
      "aring": 5956,
      "ker": 5957,
      "Ġunnec": 5958,
      "threaded": 5959,
      "ecure": 5960,
      "catch": 5961,
      "sumption": 5962,
      "UP": 5963,
      "EN": 5964,
      "ĠNe": 5965,
      "Ġpreviously": 5966,
      "ĠPRI": 5967,
      "ĠQuery": 5968,
      "Reader": 5969,
      "Ġhashing": 5970,
      "heapify": 5971,
      "Ġresponses": 5972,
      "Ġextend": 5973,
      "Ġproduc": 5974,
      "oriz": 5975,
      "Ġrotations": 5976,
      "Ġfac": 5977,
      "licy": 5978,
      "aged": 5979,
      "Ġconc": 5980,
      "compare": 5981,
      "Ġsyn": 5982,
      "Is": 5983,
      "medi": 5984,
      "Ġdeli": 5985,
      "Ġ*=": 5986,
      "iving": 5987,
      "Ġdivided": 5988,
      "orizon": 5989,
      "tient": 5990,
      "ĠDatabase": 5991,
      "ruit": 5992,
      "ĠExecution": 5993,
      "'}": 5994,
      "sv": 5995,
      "Ġcomputations": 5996,
      "ĠRedu": 5997,
      "Ġmerging": 5998,
      "ĠMat": 5999,
      "inator": 6000,
      "åıĺ": 6001,
      "extend": 6002,
      "Ġconstructor": 6003,
      "otes": 6004,
      "linear": 6005,
      "Factorial": 6006,
      "ç¼ĸåĨĻ": 6007,
      "ards": 6008,
      "Ġsignificantly": 6009,
      "Ġvectors": 6010,
      "veness": 6011,
      "æĢ»ç»ĵ": 6012,
      "owel": 6013,
      "Ġpartitions": 6014,
      "swap": 6015,
      "Ġcompletes": 6016,
      "address": 6017,
      "Long": 6018,
      "Ġlazy": 6019,
      "riginal": 6020,
      "Ġunvisited": 6021,
      "ĠEvent": 6022,
      "ĠShould": 6023,
      "endl": 6024,
      "ĠPRIMARY": 6025,
      "osing": 6026,
      "200": 6027,
      "Visual": 6028,
      "ĠIteration": 6029,
      "Ġpadding": 6030,
      "ouse": 6031,
      "best": 6032,
      "Ġsimultaneous": 6033,
      "Iterative": 6034,
      "^{": 6035,
      "ĠGET": 6036,
      "oration": 6037,
      "web": 6038,
      "ä¼ĺåħĪ": 6039,
      "ĠRot": 6040,
      "apt": 6041,
      "Ġdictionaries": 6042,
      "ĨĴ": 6043,
      "Ġattack": 6044,
      "labels": 6045,
      "456": 6046,
      "Ġlps": 6047,
      "caps": 6048,
      "aeiou": 6049,
      "ĠMake": 6050,
      "ficulty": 6051,
      "Ġwriting": 6052,
      "react": 6053,
      "Weather": 6054,
      "bc": 6055,
      "Ġpotentially": 6056,
      "çī¹": 6057,
      "valuation": 6058,
      "peed": 6059,
      "ç»ĵæŀĦ": 6060,
      "Ġprotocol": 6061,
      "Memory": 6062,
      "Ġtriangle": 6063,
      "Ġlonger": 6064,
      "è¿ŀ": 6065,
      "login": 6066,
      "Ġ...,": 6067,
      "squared": 6068,
      "âĶĢ": 6069,
      "resh": 6070,
      "fmt": 6071,
      "Ġdecryption": 6072,
      "chema": 6073,
      "Que": 6074,
      "ĠNumbers": 6075,
      "plore": 6076,
      "Ġfar": 6077,
      "Ġencoded": 6078,
      "Ġtrie": 6079,
      "Ġconsumer": 6080,
      "fold": 6081,
      "irtual": 6082,
      "Ġdistributed": 6083,
      "ĠFound": 6084,
      "Ġcommands": 6085,
      "Quick": 6086,
      "Ġconcatenate": 6087,
      "Ġkeyword": 6088,
      "Ġclosest": 6089,
      "Ġbrow": 6090,
      "mutations": 6091,
      "Ġinfinite": 6092,
      "å¾ªçİ¯": 6093,
      "arity": 6094,
      "omic": 6095,
      "Ġhashed": 6096,
      "ĠWebSocket": 6097,
      "eratures": 6098,
      "ĠKn": 6099,
      "Det": 6100,
      "leg": 6101,
      "unded": 6102,
      "ĠComponents": 6103,
      "crypted": 6104,
      "pq": 6105,
      "ĠCan": 6106,
      "Ġtrig": 6107,
      "Ġfree": 6108,
      "Ġcloud": 6109,
      "DO": 6110,
      "att": 6111,
      "åĽł": 6112,
      "means": 6113,
      "components": 6114,
      "75": 6115,
      "Ġpuzz": 6116,
      "Ġsubproblems": 6117,
      "copy": 6118,
      "Ġexpand": 6119,
      "FILE": 6120,
      "Ġemployees": 6121,
      "vation": 6122,
      "ĠWork": 6123,
      "Ġpermissions": 6124,
      "llision": 6125,
      "Ġfrequent": 6126,
      "ĠCPU": 6127,
      "Ġperiod": 6128,
      "æģ¯": 6129,
      "å¥": 6130,
      "Ġunnecessary": 6131,
      "]`:": 6132,
      "Area": 6133,
      "escription": 6134,
      "ĠStructures": 6135,
      "ĠInteger": 6136,
      "Ġ23": 6137,
      "nomial": 6138,
      "isEmpty": 6139,
      "pivot": 6140,
      "Ġ97": 6141,
      "Cache": 6142,
      "Ġjust": 6143,
      "Ġreq": 6144,
      "aw": 6145,
      "Ġlookup": 6146,
      "ailability": 6147,
      "SL": 6148,
      "Ġcaching": 6149,
      "iddle": 6150,
      "éĥ": 6151,
      "Ġnx": 6152,
      "éĥ¨": 6153,
      "Ġgenerating": 6154,
      "accuracy": 6155,
      "Ġbar": 6156,
      "Ġsure": 6157,
      "Ġgradient": 6158,
      "Ġrequiring": 6159,
      "arches": 6160,
      "ĠTesting": 6161,
      "linked": 6162,
      "-----": 6163,
      "ĠMy": 6164,
      "vie": 6165,
      "Ġ`[[": 6166,
      "Ġachieved": 6167,
      "Ġaddres": 6168,
      "Ġfilename": 6169,
      "chedul": 6170,
      "Ġwra": 6171,
      "tax": 6172,
      "Ġ*/": 6173,
      "window": 6174,
      "Ġimmediately": 6175,
      "adata": 6176,
      "Ġå°Ĩ": 6177,
      "Py": 6178,
      "eature": 6179,
      "overl": 6180,
      "require": 6181,
      "Ġrectangle": 6182,
      "mbol": 6183,
      "tivation": 6184,
      "Ġown": 6185,
      "px": 6186,
      "randint": 6187,
      "Ġmodular": 6188,
      "ĠProcessing": 6189,
      "clusion": 6190,
      "coins": 6191,
      "Ġregion": 6192,
      "Block": 6193,
      "Install": 6194,
      "ç³": 6195,
      "({'": 6196,
      "API": 6197,
      "make": 6198,
      "category": 6199,
      "ĠâĨĴ": 6200,
      "John": 6201,
      "ĠOption": 6202,
      "Ġurl": 6203,
      "Ġpractical": 6204,
      "Average": 6205,
      "Ġç¤ºä¾ĭ": 6206,
      "default": 6207,
      "transactions": 6208,
      "Based": 6209,
      "ĠParse": 6210,
      "Car": 6211,
      "Ġwriteln": 6212,
      "Helper": 6213,
      "Ġconstructs": 6214,
      "Ġ[-": 6215,
      "Ġclusters": 6216,
      "æł¹æį®": 6217,
      "ĠFROM": 6218,
      "Final": 6219,
      "lin": 6220,
      "oting": 6221,
      "iostream": 6222,
      "Ġprincip": 6223,
      "Ġ500": 6224,
      "Ġhum": 6225,
      "Mon": 6226,
      "decrypt": 6227,
      "çº¿": 6228,
      "nested": 6229,
      "aus": 6230,
      "reat": 6231,
      "å¾Ĺ": 6232,
      "ĠSqu": 6233,
      "Delete": 6234,
      "ced": 6235,
      "ensity": 6236,
      "Ġcub": 6237,
      "ĠURLs": 6238,
      ":])": 6239,
      "email": 6240,
      "Ġbracket": 6241,
      "account": 6242,
      "ĠTrain": 6243,
      "Ġhistory": 6244,
      "Ġpygame": 6245,
      "gress": 6246,
      "èĬĤçĤ¹çļĦ": 6247,
      "ssign": 6248,
      "ĠExpected": 6249,
      "ecurity": 6250,
      "ĠUnity": 6251,
      "Ġexplanations": 6252,
      "Ġbeginning": 6253,
      "æĹ¶éĹ´å¤įæĿĤåº¦": 6254,
      "ĠON": 6255,
      "tecture": 6256,
      "dest": 6257,
      "itiz": 6258,
      "ĠInstall": 6259,
      "Ġreverses": 6260,
      "Complexity": 6261,
      "éĴĪ": 6262,
      "Ġspecify": 6263,
      "listen": 6264,
      "Ġoffers": 6265,
      "Obj": 6266,
      "Initial": 6267,
      "ĠCRUD": 6268,
      "Ġ123": 6269,
      "ĠValidation": 6270,
      "Ġinteract": 6271,
      "Ġdivisors": 6272,
      "quantity": 6273,
      "æĺİ": 6274,
      "Buil": 6275,
      "éĵ¾è¡¨": 6276,
      "evaluate": 6277,
      "Ġtempor": 6278,
      "rowth": 6279,
      "usage": 6280,
      "strip": 6281,
      "From": 6282,
      "private": 6283,
      "ĠItem": 6284,
      "Ġperfect": 6285,
      "Ġendpoints": 6286,
      "Ġchallen": 6287,
      "Ġmonitoring": 6288,
      "zip": 6289,
      "æķ°éĩı": 6290,
      "}}": 6291,
      "Ġqueen": 6292,
      "orical": 6293,
      "Ġdefining": 6294,
      "Ġstrict": 6295,
      "Connection": 6296,
      "Ġmock": 6297,
      "ç¬¬": 6298,
      "Ġpossi": 6299,
      "bound": 6300,
      "\").": 6301,
      "Operations": 6302,
      "defmodule": 6303,
      "ç³»": 6304,
      "Aut": 6305,
      "ĠPer": 6306,
      "atest": 6307,
      "++]": 6308,
      "inorder": 6309,
      "roids": 6310,
      "Fl": 6311,
      "Author": 6312,
      "pan": 6313,
      "ç¨ĭåºı": 6314,
      "]],": 6315,
      "difference": 6316,
      "Ġnavigation": 6317,
      "Ġplain": 6318,
      "()`,": 6319,
      "Ġkeeps": 6320,
      "ĠTry": 6321,
      "Ġdijkstra": 6322,
      "Ġones": 6323,
      "Ġdevelopment": 6324,
      "alpha": 6325,
      "finding": 6326,
      "hites": 6327,
      "apes": 6328,
      "ĠPlace": 6329,
      "ĠåĪĿå§ĭåĮĸ": 6330,
      "description": 6331,
      "gument": 6332,
      "ĠPush": 6333,
      "steps": 6334,
      "EI": 6335,
      "ĠRESTful": 6336,
      "åŁº": 6337,
      "éĩĬ": 6338,
      "ZE": 6339,
      "Ġconsistency": 6340,
      "Double": 6341,
      "Ġfaster": 6342,
      "Ġmaxim": 6343,
      "ued": 6344,
      "utation": 6345,
      "[(": 6346,
      "ered": 6347,
      "ç»Ł": 6348,
      "Ġoverhead": 6349,
      "Ġmovement": 6350,
      "Ġoften": 6351,
      "Ġ35": 6352,
      "Ġlexicographic": 6353,
      "Ġindexing": 6354,
      "xml": 6355,
      "ises": 6356,
      "Ġresizing": 6357,
      "hentication": 6358,
      "æĲ": 6359,
      "condition": 6360,
      "ĠSto": 6361,
      "olving": 6362,
      "Ġshorter": 6363,
      "ç»´": 6364,
      "Status": 6365,
      "åı³": 6366,
      "Ġidentical": 6367,
      "afe": 6368,
      "ç®Ģ": 6369,
      "Ġhours": 6370,
      "sums": 6371,
      "äº¤": 6372,
      "ĠWithin": 6373,
      "ctor": 6374,
      "ĠTrieNode": 6375,
      "Ġproperly": 6376,
      "ĠComparison": 6377,
      "LU": 6378,
      "lie": 6379,
      "Ġidentifies": 6380,
      "Ġcluster": 6381,
      "pleft": 6382,
      "Ġchaining": 6383,
      "HTTP": 6384,
      "Ġtypical": 6385,
      "gen": 6386,
      "Ġclose": 6387,
      "Ġflo": 6388,
      "gle": 6389,
      "Logger": 6390,
      "ĠPair": 6391,
      "Ġpool": 6392,
      "Ġpunctuation": 6393,
      "åĪ¶": 6394,
      "contained": 6395,
      "Ġalign": 6396,
      "è¯ģ": 6397,
      "hance": 6398,
      "ĠAND": 6399,
      ">(": 6400,
      "Ġcompressed": 6401,
      "Ġwalk": 6402,
      "bot": 6403,
      "åŀ": 6404,
      ")),": 6405,
      "IT": 6406,
      "Failed": 6407,
      "è§Ħ": 6408,
      "Ġdiff": 6409,
      "Ġcopy": 6410,
      "Ġoperators": 6411,
      "å®ĥ": 6412,
      "stract": 6413,
      "Ġtwice": 6414,
      "ESC": 6415,
      "Ġanomal": 6416,
      "Ġcreation": 6417,
      "Ġsho": 6418,
      "ĠWait": 6419,
      "ĠLength": 6420,
      ")\\),": 6421,
      ")])": 6422,
      "Ġ[];": 6423,
      "Dep": 6424,
      "rayscale": 6425,
      "Ġexperience": 6426,
      "Ġengine": 6427,
      "poch": 6428,
      "quent": 6429,
      "tuple": 6430,
      "Ġaffect": 6431,
      "55": 6432,
      "è¾ĥ": 6433,
      "erce": 6434,
      "Ġratio": 6435,
      "lob": 6436,
      "Group": 6437,
      "Ġåĩ½æķ°": 6438,
      "ĠEnd": 6439,
      "ĠOb": 6440,
      "positive": 6441,
      "aled": 6442,
      "Ġfourth": 6443,
      "Ġbubble": 6444,
      "SW": 6445,
      "æĲľ": 6446,
      "CK": 6447,
      "ĠEmpty": 6448,
      "ribution": 6449,
      "Controller": 6450,
      "æ»¡": 6451,
      "ĠLinkedList": 6452,
      "ilit": 6453,
      "Ġsparse": 6454,
      "Ġappends": 6455,
      "Ġtopological": 6456,
      "Ġoccurred": 6457,
      "large": 6458,
      "Pool": 6459,
      "ĠOr": 6460,
      "æĥħ": 6461,
      "columns": 6462,
      "popleft": 6463,
      "ader": 6464,
      "Ġessential": 6465,
      "Ġdomain": 6466,
      "Ġoverlap": 6467,
      "Ġsingly": 6468,
      "Ġdecomp": 6469,
      "Ġshowing": 6470,
      "NO": 6471,
      "è¯·": 6472,
      "expected": 6473,
      "compl": 6474,
      "complete": 6475,
      "lem": 6476,
      "ĠPOST": 6477,
      "Ġpopulation": 6478,
      "ters": 6479,
      "maining": 6480,
      "ymmetric": 6481,
      "Display": 6482,
      "Ġrating": 6483,
      "Ġaccumulator": 6484,
      "Ġswapped": 6485,
      "days": 6486,
      "SK": 6487,
      "æĲľç´¢": 6488,
      "aches": 6489,
      "è¯ķ": 6490,
      "select": 6491,
      "Ġinser": 6492,
      "ĠUsers": 6493,
      "Ġgcd": 6494,
      "ĠGame": 6495,
      "ĠVariables": 6496,
      "ĠStream": 6497,
      "entry": 6498,
      "å¹³": 6499,
      "bb": 6500,
      "Ġcompo": 6501,
      "ĠFetch": 6502,
      "Ġselecting": 6503,
      "Ġflask": 6504,
      "å·¦": 6505,
      "Color": 6506,
      "è¶³": 6507,
      "MM": 6508,
      "ĠHandles": 6509,
      "Ġtravel": 6510,
      "ports": 6511,
      "Ġhis": 6512,
      "ĠUnion": 6513,
      "raphic": 6514,
      "Ġleverages": 6515,
      "é¢ĳ": 6516,
      "ĠPred": 6517,
      "Ġsn": 6518,
      "Split": 6519,
      "used": 6520,
      "digits": 6521,
      "ĠOptimize": 6522,
      "Track": 6523,
      "åħ¶ä¸Ń": 6524,
      "è¯´": 6525,
      "commerce": 6526,
      "vari": 6527,
      "ĠAssuming": 6528,
      "ledge": 6529,
      "ĠMessage": 6530,
      "Integ": 6531,
      "mployees": 6532,
      "dynamic": 6533,
      "Tuple": 6534,
      "asures": 6535,
      "Decryp": 6536,
      "vironments": 6537,
      "tice": 6538,
      "Ġsplits": 6539,
      "hitespace": 6540,
      "ĠAlice": 6541,
      "Ġstatistics": 6542,
      "Ġfund": 6543,
      "Determine": 6544,
      "solve": 6545,
      "Ġconcurrency": 6546,
      "Ġpreser": 6547,
      "Ġobtained": 6548,
      "RUST": 6549,
      "Move": 6550,
      "ĠToken": 6551,
      "ä¼ĺåĮĸ": 6552,
      "Consider": 6553,
      "divide": 6554,
      "ĠReading": 6555,
      "å¸¸": 6556,
      "Ġdebug": 6557,
      "matplotlib": 6558,
      "Ġ#{": 6559,
      "Ġinit": 6560,
      "ĠMOD": 6561,
      "ny": 6562,
      "èİ": 6563,
      "Ġfetching": 6564,
      "ĠMaintain": 6565,
      "Ġcourse": 6566,
      "Ġplu": 6567,
      "Ġscale": 6568,
      "Ġborrow": 6569,
      "Ġcryptography": 6570,
      "duration": 6571,
      "force": 6572,
      "èİ·": 6573,
      "SCRIPT": 6574,
      "aily": 6575,
      "student": 6576,
      "æĮī": 6577,
      "åı£": 6578,
      "Ġgeneration": 6579,
      "Ġreason": 6580,
      "ummy": 6581,
      "can": 6582,
      "Ġsends": 6583,
      "tag": 6584,
      "Ġflatten": 6585,
      "Creating": 6586,
      "Ġglobal": 6587,
      "ĠThrough": 6588,
      "Ġfet": 6589,
      "ccuracy": 6590,
      "Fore": 6591,
      "Shape": 6592,
      "ĠDataset": 6593,
      "Ġconstructed": 6594,
      "ĠVerify": 6595,
      "Ġgood": 6596,
      "Ġtrends": 6597,
      "Ġ34": 6598,
      "acts": 6599,
      "Ġoverall": 6600,
      "ĠBal": 6601,
      "Ġevaluated": 6602,
      "Ġsimulating": 6603,
      "Ġsubsequent": 6604,
      "Json": 6605,
      "Store": 6606,
      "ĠNodes": 6607,
      "Ġcomputational": 6608,
      "Transform": 6609,
      "Ġpayment": 6610,
      "Ġclustering": 6611,
      "]}": 6612,
      "versing": 6613,
      "member": 6614,
      "Ġcodes": 6615,
      "Queens": 6616,
      "AD": 6617,
      "éĤ»": 6618,
      "secre": 6619,
      "eas": 6620,
      "ĠConstruction": 6621,
      "Ġrelevant": 6622,
      "tools": 6623,
      "lists": 6624,
      "umeric": 6625,
      "Ġfinally": 6626,
      "LIA": 6627,
      "å®Į": 6628,
      "istration": 6629,
      "ĠEuclidean": 6630,
      "Ġdecide": 6631,
      "ĠDecryp": 6632,
      "ĠNot": 6633,
      "Left": 6634,
      "nels": 6635,
      "rames": 6636,
      "bool": 6637,
      "logging": 6638,
      "ĠCombine": 6639,
      "Format": 6640,
      "Ġstar": 6641,
      "Ġenvironments": 6642,
      "åŀĭ": 6643,
      "Ġ`@": 6644,
      "Ġfinancial": 6645,
      "quential": 6646,
      "Ġaim": 6647,
      "Your": 6648,
      "Ġrepeatedly": 6649,
      "build": 6650,
      "Ġur": 6651,
      "Ġzip": 6652,
      "quicksort": 6653,
      "ĠTransform": 6654,
      "çĬ": 6655,
      "æĮģ": 6656,
      "Ġpalindromes": 6657,
      "ĠVec": 6658,
      "çĬ¶": 6659,
      "lang": 6660,
      "normal": 6661,
      "Ġpartitioning": 6662,
      "ĠOne": 6663,
      "tempt": 6664,
      "Ġindicate": 6665,
      "ĠGrid": 6666,
      "Ġeduc": 6667,
      "Convert": 6668,
      "xim": 6669,
      "Ġexpan": 6670,
      "Ġalphabet": 6671,
      "Ġfriends": 6672,
      "Ġformats": 6673,
      "ä¿¡": 6674,
      "Ġparentheses": 6675,
      "ditions": 6676,
      "cp": 6677,
      "Sw": 6678,
      "Ġ28": 6679,
      "Ġ`{'": 6680,
      "Ġadvanced": 6681,
      "Ġprefer": 6682,
      "Scenario": 6683,
      "JAVASCRIPT": 6684,
      "Ġscaling": 6685,
      "ĠLCS": 6686,
      "Ġrecogn": 6687,
      "**,": 6688,
      "ante": 6689,
      "'):": 6690,
      "JULIA": 6691,
      "Ġcontainer": 6692,
      "Ġsolving": 6693,
      "ĠæŃ¥éª¤": 6694,
      "Ġretrieves": 6695,
      "å¢ŀ": 6696,
      "Select": 6697,
      "Ġ`<": 6698,
      "Ġ`_": 6699,
      "Ġcore": 6700,
      "owers": 6701,
      "pport": 6702,
      "Network": 6703,
      "lockwise": 6704,
      "Ġpackages": 6705,
      "ĠView": 6706,
      "ĠTuple": 6707,
      "Ġ[],": 6708,
      "Ġplayers": 6709,
      "CM": 6710,
      "llm": 6711,
      "Ġ27": 6712,
      "SH": 6713,
      "sl": 6714,
      "CES": 6715,
      "pass": 6716,
      "ensors": 6717,
      "ival": 6718,
      "plicit": 6719,
      "Ġfilled": 6720,
      "Divide": 6721,
      "Ġfails": 6722,
      "Simulate": 6723,
      "Ġclarity": 6724,
      "ĠIDs": 6725,
      "BST": 6726,
      "Ġclosed": 6727,
      "å·²": 6728,
      "Ġminimizing": 6729,
      "je": 6730,
      "After": 6731,
      "sess": 6732,
      "è¦ģæ±Ĥ": 6733,
      "ised": 6734,
      "ä¾ĭå¦Ĥ": 6735,
      "æŁ¥æī¾": 6736,
      "Ġgen": 6737,
      "Ġcursor": 6738,
      "(\"%": 6739,
      "Ġencaps": 6740,
      "Ġmodules": 6741,
      "Ġhandler": 6742,
      "arante": 6743,
      "Ġwrites": 6744,
      "positions": 6745,
      "helper": 6746,
      "FF": 6747,
      "æĮĩéĴĪ": 6748,
      "Redu": 6749,
      "Ġdividing": 6750,
      "Ġdel": 6751,
      "msg": 6752,
      "Ġtransposed": 6753,
      "Ġheights": 6754,
      "Ġ150": 6755,
      "unted": 6756,
      "isk": 6757,
      "Ġtensor": 6758,
      "previous": 6759,
      "ĠSQLite": 6760,
      "Ġpay": 6761,
      ")`**:": 6762,
      "åĮº": 6763,
      "anging": 6764,
      "aved": 6765,
      "Ġestim": 6766,
      "Square": 6767,
      "auti": 6768,
      "Ġsimplified": 6769,
      "secret": 6770,
      "Words": 6771,
      "quality": 6772,
      "Cost": 6773,
      "Ġcredentials": 6774,
      "Extract": 6775,
      "imilar": 6776,
      "è§£éĩĬ": 6777,
      "Ġanagrams": 6778,
      "æ¡": 6779,
      "#]": 6780,
      "Ġrequirement": 6781,
      "iterative": 6782,
      "ĠDocker": 6783,
      "Ġavoiding": 6784,
      "Ġkeeping": 6785,
      "Ġheaders": 6786,
      "æĻ": 6787,
      "Ġmst": 6788,
      "åıĳ": 6789,
      "smallest": 6790,
      "tracking": 6791,
      "Ġ36": 6792,
      "friend": 6793,
      "Ġsending": 6794,
      "AM": 6795,
      "trees": 6796,
      "ĠGit": 6797,
      "serialize": 6798,
      "Ġreflect": 6799,
      "sius": 6800,
      "ä»»åĬ¡": 6801,
      "Ġpeg": 6802,
      "ĠDef": 6803,
      "ltk": 6804,
      "ublis": 6805,
      "ĠAdditionally": 6806,
      "Field": 6807,
      "dated": 6808,
      "Session": 6809,
      "Suppose": 6810,
      "çª": 6811,
      "axis": 6812,
      "Ġutilizing": 6813,
      "è¯´æĺİ": 6814,
      "Gre": 6815,
      "istics": 6816,
      "Ġflexible": 6817,
      "ĠMinimum": 6818,
      "Frequency": 6819,
      "Ġchunks": 6820,
      "ĠSHA": 6821,
      "ĠMethods": 6822,
      "Traversal": 6823,
      "åħ³éĶ®": 6824,
      "AE": 6825,
      "']`": 6826,
      "Processing": 6827,
      "Ġutilizes": 6828,
      "nil": 6829,
      "Transaction": 6830,
      "Ġparsed": 6831,
      "Found": 6832,
      "Ġscan": 6833,
      "metrics": 6834,
      "Ġshowc": 6835,
      "Ġemp": 6836,
      "ples": 6837,
      "Ġbackend": 6838,
      "ĠUnderstand": 6839,
      "Query": 6840,
      "SIZE": 6841,
      "Ġextracted": 6842,
      "Ġdegrees": 6843,
      "Ġextracts": 6844,
      "Ġpreced": 6845,
      "ensive": 6846,
      "ĠBY": 6847,
      "ĠExplain": 6848,
      "room": 6849,
      "æ»¡è¶³": 6850,
      "population": 6851,
      "Ġdisco": 6852,
      "Ed": 6853,
      "collect": 6854,
      "ah": 6855,
      "Math": 6856,
      "UM": 6857,
      "sync": 6858,
      "Rot": 6859,
      "Ġsliding": 6860,
      "Ġrepeat": 6861,
      "ingleton": 6862,
      "17": 6863,
      "uch": 6864,
      "patch": 6865,
      "ĠSave": 6866,
      "Ġnature": 6867,
      "Ġsearches": 6868,
      "Ġincorpor": 6869,
      "ĠJoin": 6870,
      "ALA": 6871,
      "Ġsubsequences": 6872,
      "`)**:": 6873,
      "oth": 6874,
      "Ġfacilit": 6875,
      "CLO": 6876,
      "Ġloading": 6877,
      "inventory": 6878,
      "ĠOnly": 6879,
      "(['": 6880,
      "åºĵ": 6881,
      "Ġyet": 6882,
      "åľº": 6883,
      "åı¯èĥ½çļĦ": 6884,
      "ql": 6885,
      "åĪĽå»ºä¸Ģä¸ª": 6886,
      "Person": 6887,
      "åĪĨæŀĲ": 6888,
      "Ġbus": 6889,
      "ï¼ļ**": 6890,
      "Ens": 6891,
      "ĠForm": 6892,
      "clean": 6893,
      "ĠQuickSort": 6894,
      "convert": 6895,
      "Ġsimultaneously": 6896,
      "è¯į": 6897,
      "ĠConver": 6898,
      "HashMap": 6899,
      "BY": 6900,
      "Ġdeep": 6901,
      "full": 6902,
      "Ġsection": 6903,
      "Ġinserting": 6904,
      "Word": 6905,
      "Form": 6906,
      "lassifier": 6907,
      "Tasks": 6908,
      "Adj": 6909,
      "Next": 6910,
      "job": 6911,
      "ĠQuicksort": 6912,
      "ialized": 6913,
      "customer": 6914,
      "pository": 6915,
      "where": 6916,
      "Ġleaf": 6917,
      "etry": 6918,
      "Ġqueues": 6919,
      "Vowels": 6920,
      "RUE": 6921,
      "TreeNode": 6922,
      "Ġresi": 6923,
      "Ġlimits": 6924,
      "åĨµ": 6925,
      "Ġdisconnected": 6926,
      "Ġè®¡ç®Ĺ": 6927,
      "Ġequation": 6928,
      "inclu": 6929,
      "))`": 6930,
      "romise": 6931,
      "Ġrelationships": 6932,
      "Ġplacing": 6933,
      "erarch": 6934,
      "SCALA": 6935,
      "Box": 6936,
      "Ġdescrib": 6937,
      "ä¹ĭ": 6938,
      "Ġtemplate": 6939,
      "agno": 6940,
      "Ġques": 6941,
      "ĠMemory": 6942,
      "ĠOptimization": 6943,
      "success": 6944,
      "Ġpurpose": 6945,
      "Ġcut": 6946,
      "Ġexplicit": 6947,
      "è¿Ĳ": 6948,
      "conn": 6949,
      "Ġfi": 6950,
      "AG": 6951,
      "puts": 6952,
      "Ġshifted": 6953,
      "Ġsmo": 6954,
      "IFT": 6955,
      "Ġ(+": 6956,
      "Generic": 6957,
      "Ġeng": 6958,
      "autiful": 6959,
      "Ġmutex": 6960,
      "Ġrule": 6961,
      "magine": 6962,
      "Circle": 6963,
      "Ġwithdraw": 6964,
      "Ġdoubly": 6965,
      "itude": 6966,
      "Ġbatch": 6967,
      "ä¸įåĲĮ": 6968,
      "vered": 6969,
      "ĠGen": 6970,
      "ĠWHERE": 6971,
      "Ġvirtual": 6972,
      "Execution": 6973,
      "Ġguarante": 6974,
      "ĠExplore": 6975,
      "PHP": 6976,
      "Ġactive": 6977,
      "æ®": 6978,
      "è½¬æį¢": 6979,
      "Ġsuggestions": 6980,
      "Ġnotifications": 6981,
      "åĬ¨æĢģ": 6982,
      "ĠAccess": 6983,
      "Ġpq": 6984,
      "Ġaccompl": 6985,
      "äºĽ": 6986,
      "}.": 6987,
      "çĽ´": 6988,
      "ysics": 6989,
      "src": 6990,
      "rel": 6991,
      "Ġprinciples": 6992,
      "Ġinterpre": 6993,
      "Ġreplaced": 6994,
      "Ġunits": 6995,
      "æķ°åŃĹ": 6996,
      "(`": 6997,
      "distances": 6998,
      "ç»Ī": 6999,
      "Ġhaving": 7000,
      "ĠPointer": 7001,
      "ĠGeneration": 7002,
      "Ġmedia": 7003,
      "pag": 7004,
      ")\\).": 7005,
      "ĠWhile": 7006,
      "æĥħåĨµ": 7007,
      "ĠAssign": 7008,
      "ideo": 7009,
      "mediate": 7010,
      "Ġmultiplied": 7011,
      "ĠInterface": 7012,
      "Ġsalt": 7013,
      "otlin": 7014,
      "analyze": 7015,
      "Ġreduced": 7016,
      "EG": 7017,
      "End": 7018,
      "Right": 7019,
      "Strings": 7020,
      "pg": 7021,
      "series": 7022,
      "500": 7023,
      "Ġtack": 7024,
      "æŃ£": 7025,
      "Ġoverlapping": 7026,
      "Collections": 7027,
      "Ġcare": 7028,
      "48": 7029,
      "logs": 7030,
      "æĸĩä»¶": 7031,
      "Ġcirc": 7032,
      "remo": 7033,
      "Ġstrictly": 7034,
      "selection": 7035,
      "RUBY": 7036,
      "nections": 7037,
      "Ġdy": 7038,
      "Ġjo": 7039,
      "concurrent": 7040,
      "`**": 7041,
      "Ġmeets": 7042,
      "ĠOR": 7043,
      "Ġlayers": 7044,
      "![": 7045,
      "Difference": 7046,
      "imension": 7047,
      "Ġmodulus": 7048,
      "Ġdashboard": 7049,
      "Height": 7050,
      "(*": 7051,
      "ta": 7052,
      "Ġjump": 7053,
      "Ġfinish": 7054,
      "éĢĤ": 7055,
      "actory": 7056,
      "ĠArrayList": 7057,
      "æ¬¡æķ°": 7058,
      "Ġboundary": 7059,
      "orizontal": 7060,
      "ros": 7061,
      "iness": 7062,
      "Ġnaive": 7063,
      "Ġcombine": 7064,
      "Ġpasswords": 7065,
      "Ġouter": 7066,
      "Ġconflicts": 7067,
      "Ġnormalized": 7068,
      "PUT": 7069,
      "connection": 7070,
      "Ġdemand": 7071,
      "ĠRed": 7072,
      "Ġtrigger": 7073,
      "validation": 7074,
      "æľīæķĪ": 7075,
      "stdio": 7076,
      "ç®Ģåįķ": 7077,
      "integ": 7078,
      "å½¢": 7079,
      "Ġadjusted": 7080,
      "detect": 7081,
      "Go": 7082,
      "Ġgive": 7083,
      "PA": 7084,
      "SWIFT": 7085,
      "ĠSecond": 7086,
      "ĠConnect": 7087,
      "ĠVector": 7088,
      "tiveness": 7089,
      "Ġdeleting": 7090,
      "çĽ®çļĦ": 7091,
      "Ġfoc": 7092,
      "Comparison": 7093,
      "ĠPattern": 7094,
      "Ġservers": 7095,
      "cherry": 7096,
      "Open": 7097,
      "ĠSome": 7098,
      "mbed": 7099,
      "YES": 7100,
      "events": 7101,
      "ĠService": 7102,
      "JURE": 7103,
      "(__": 7104,
      "ameter": 7105,
      "ople": 7106,
      "CLOJURE": 7107,
      "Ġcoefficients": 7108,
      "ĠNext": 7109,
      "ç«": 7110,
      "Score": 7111,
      "Ġ65": 7112,
      "visit": 7113,
      "Ġsink": 7114,
      "Testing": 7115,
      "ĠSimilar": 7116,
      "overlapping": 7117,
      "aves": 7118,
      "Ensure": 7119,
      "consumer": 7120,
      "åĪ«": 7121,
      "NN": 7122,
      "Ġreader": 7123,
      "assertEqual": 7124,
      "primes": 7125,
      "Steps": 7126,
      "Ġ70": 7127,
      "jection": 7128,
      "Ġdates": 7129,
      "Ġoverride": 7130,
      "Ġny": 7131,
      "resource": 7132,
      "ament": 7133,
      "Ġmanager": 7134,
      "Ġcover": 7135,
      "cap": 7136,
      "Ġcyclic": 7137,
      "analysis": 7138,
      "ticle": 7139,
      "Ġpredefined": 7140,
      "Finding": 7141,
      "Ġmechanisms": 7142,
      "ĠIndexError": 7143,
      "ucture": 7144,
      "ĠCurrent": 7145,
      "diagonal": 7146,
      "ylabel": 7147,
      "Ġruntime": 7148,
      "Work": 7149,
      "contains": 7150,
      "Ġdaily": 7151,
      "Ġprobability": 7152,
      "åĳ": 7153,
      "radius": 7154,
      "italize": 7155,
      "ĠParsing": 7156,
      "ĠKnapsack": 7157,
      "yclic": 7158,
      "Ġlowest": 7159,
      "rece": 7160,
      "Ġinterse": 7161,
      "vider": 7162,
      "erts": 7163,
      "ELI": 7164,
      "TYP": 7165,
      "Ġexceeding": 7166,
      "sentiment": 7167,
      "Ġidentifying": 7168,
      "Ġutility": 7169,
      "ĠShow": 7170,
      "ĠHuffman": 7171,
      "ç§»åĬ¨": 7172,
      "Ġconfirm": 7173,
      "integer": 7174,
      "decreasing": 7175,
      "Ġfrequently": 7176,
      "Ġheader": 7177,
      "ĠTarget": 7178,
      "na": 7179,
      "Ġvehicle": 7180,
      "Ġsumming": 7181,
      "two": 7182,
      "Ġè¿ĶåĽŀ": 7183,
      "æĹł": 7184,
      "Ġtermin": 7185,
      "Ġactivation": 7186,
      "çĬ¶æĢģ": 7187,
      "Ġadjusting": 7188,
      "essions": 7189,
      "Ġremoval": 7190,
      "ç¦": 7191,
      "ĠStrategy": 7192,
      "ĠSudoku": 7193,
      "åħ·": 7194,
      "dot": 7195,
      "aking": 7196,
      "Ġalternating": 7197,
      "Ġnearest": 7198,
      "ĠProper": 7199,
      "performance": 7200,
      "Ġimplementations": 7201,
      "Ġmask": 7202,
      "cas": 7203,
      "65": 7204,
      "utures": 7205,
      "lta": 7206,
      "Ġhistorical": 7207,
      ".**": 7208,
      "Ġ300": 7209,
      "Ġroll": 7210,
      "XIR": 7211,
      "Ġintegration": 7212,
      "hours": 7213,
      "urses": 7214,
      "optimized": 7215,
      "SO": 7216,
      "ELIXIR": 7217,
      "Ġrace": 7218,
      "Ġreset": 7219,
      "KEY": 7220,
      "Access": 7221,
      "await": 7222,
      "ras": 7223,
      "Ġopening": 7224,
      "ĠEnum": 7225,
      "stringify": 7226,
      "den": 7227,
      "Ġrelative": 7228,
      "history": 7229,
      "ĠLong": 7230,
      "Exec": 7231,
      "Ġwritten": 7232,
      "ERT": 7233,
      "gramming": 7234,
      "Ġsmart": 7235,
      "å¼Ģå§ĭ": 7236,
      "ĠRecur": 7237,
      "Ġ`#": 7238,
      "Ġvs": 7239,
      "CV": 7240,
      "ĠEfficiently": 7241,
      "hell": 7242,
      "xlabel": 7243,
      "maphore": 7244,
      "Ġworker": 7245,
      "angles": 7246,
      "Ġimproving": 7247,
      "ĠContinue": 7248,
      "olle": 7249,
      "bfs": 7250,
      "Ġstable": 7251,
      "veloper": 7252,
      "ĠLibrary": 7253,
      "squares": 7254,
      "PORT": 7255,
      "context": 7256,
      "Ġaccessed": 7257,
      "Ġplaces": 7258,
      "Ġest": 7259,
      "æŃ¤": 7260,
      "ypot": 7261,
      "river": 7262,
      "ĠEd": 7263,
      "Unique": 7264,
      "ĠFormat": 7265,
      "Writer": 7266,
      "layout": 7267,
      "Ġjobs": 7268,
      "tings": 7269,
      "Ġsys": 7270,
      "Ġlatency": 7271,
      "è·Ŀ": 7272,
      "Ġdefin": 7273,
      "unit": 7274,
      "åĪ©": 7275,
      "orch": 7276,
      "255": 7277,
      "ĠSpecific": 7278,
      "Ġupon": 7279,
      "Ġdiagonals": 7280,
      "Ġshifts": 7281,
      "æº": 7282,
      "profit": 7283,
      "Ġbyte": 7284,
      "Ġpredicted": 7285,
      "LETE": 7286,
      "æĶ¶": 7287,
      "Ġtackle": 7288,
      "Ġparser": 7289,
      "each": 7290,
      "Ġcategories": 7291,
      "hird": 7292,
      "ruits": 7293,
      "Ġtemporary": 7294,
      "çļĦåħĥç´ł": 7295,
      "Ġcleaned": 7296,
      "Ġscheduler": 7297,
      "Ġreceives": 7298,
      "Ġdivides": 7299,
      "OS": 7300,
      "ç¦»": 7301,
      "Ġdelivery": 7302,
      "éªĮ": 7303,
      "iling": 7304,
      "Tri": 7305,
      "weighted": 7306,
      "Ġgraphic": 7307,
      "ĠMatch": 7308,
      "around": 7309,
      "Ġpreprocessing": 7310,
      "ç½ĳ": 7311,
      "35": 7312,
      "lications": 7313,
      "ä½ķ": 7314,
      "ĠSuppose": 7315,
      "ESCRIPT": 7316,
      "cel": 7317,
      "ĠAg": 7318,
      "Ġexternal": 7319,
      "Ġconsum": 7320,
      "arb": 7321,
      "Books": 7322,
      "Temperature": 7323,
      "()`:": 7324,
      "âĢĿ": 7325,
      "ĠImplementing": 7326,
      "Ġplaceholder": 7327,
      "Insertion": 7328,
      "oted": 7329,
      "frequ": 7330,
      "è¾¾": 7331,
      "Info": 7332,
      "ogram": 7333,
      "oT": 7334,
      "Ġfully": 7335,
      "logy": 7336,
      "Ġreplacement": 7337,
      "schedule": 7338,
      "ĠCycle": 7339,
      "ä½ĵ": 7340,
      "viation": 7341,
      "numpy": 7342,
      "Ġnetworks": 7343,
      "ablish": 7344,
      "GO": 7345,
      "nx": 7346,
      "Ġdx": 7347,
      "Validation": 7348,
      "Random": 7349,
      "05": 7350,
      "ĠValues": 7351,
      "Ġproduction": 7352,
      "Ġbcrypt": 7353,
      "ĠBob": 7354,
      "Ġclassic": 7355,
      "çĦ": 7356,
      "summary": 7357,
      "rectory": 7358,
      "itize": 7359,
      "Ġlogger": 7360,
      "alary": 7361,
      "vowel": 7362,
      "Iteration": 7363,
      "resources": 7364,
      "Rece": 7365,
      "parallel": 7366,
      "Ġcorresponds": 7367,
      "Ġignore": 7368,
      "ian": 7369,
      "ĠRemoves": 7370,
      "Ġinterest": 7371,
      "verses": 7372,
      "Ġeducational": 7373,
      "Ġinvolving": 7374,
      "Sequence": 7375,
      "secure": 7376,
      "mined": 7377,
      "Ġsuggest": 7378,
      "ä¸Ķ": 7379,
      "ĠSpec": 7380,
      "rating": 7381,
      "Ġparticip": 7382,
      "Resource": 7383,
      "Ġchanging": 7384,
      "Regression": 7385,
      "ca": 7386,
      "Original": 7387,
      "mpleted": 7388,
      "Ġpix": 7389,
      "Ġ(*": 7390,
      "atal": 7391,
      "orm": 7392,
      "ĠBasic": 7393,
      "Ġcallback": 7394,
      "threads": 7395,
      "ĠMemoization": 7396,
      "çĦ¶": 7397,
      "Buffer": 7398,
      "Ġdisplays": 7399,
      "Ġresponsive": 7400,
      "åĵģ": 7401,
      "Ġfold": 7402,
      "Ġadhe": 7403,
      "Ġmultiplying": 7404,
      "Ġbackground": 7405,
      "hy": 7406,
      "èµ·å§ĭ": 7407,
      "agnos": 7408,
      "Ġderived": 7409,
      "IP": 7410,
      "Distance": 7411,
      "SKELL": 7412,
      "export": 7413,
      "Ġacces": 7414,
      "HASKELL": 7415,
      "Ġnatural": 7416,
      "Ġprediction": 7417,
      "Ġworking": 7418,
      "Ġvers": 7419,
      "substrings": 7420,
      "Ġswapping": 7421,
      "Expected": 7422,
      "ä¿¡æģ¯": 7423,
      "akes": 7424,
      "icted": 7425,
      "Si": 7426,
      "known": 7427,
      "inner": 7428,
      "Condition": 7429,
      "Ġdeployment": 7430,
      "manager": 7431,
      "]['": 7432,
      "ellman": 7433,
      "ĠFore": 7434,
      "Ġsimulated": 7435,
      "ĠBubble": 7436,
      "çĶ¨æ³ķ": 7437,
      "Ġshapes": 7438,
      "Ġlocks": 7439,
      "é¢ĳçİĩ": 7440,
      "ĠHanoi": 7441,
      "Ġnote": 7442,
      "Ġpreorder": 7443,
      "stop": 7444,
      "Ġpreferences": 7445,
      "Ġrouting": 7446,
      "loyd": 7447,
      "ĠEr": 7448,
      "Ġtransl": 7449,
      "Ġconnectivity": 7450,
      "Column": 7451,
      "Ġcandidate": 7452,
      "}')": 7453,
      "bytes": 7454,
      "Ġimprovements": 7455,
      "flatten": 7456,
      "Ġtent": 7457,
      "partition": 7458,
      "åºıåĪĹ": 7459,
      "Ġcombines": 7460,
      "Ġsoft": 7461,
      "glish": 7462,
      "Ġhierarch": 7463,
      "ĠBooks": 7464,
      "numeric": 7465,
      "!/": 7466,
      "çŁŃ": 7467,
      "Ġpuzzle": 7468,
      "é¦": 7469,
      "Calculator": 7470,
      "structions": 7471,
      "Compute": 7472,
      "MOD": 7473,
      "Charlie": 7474,
      "filtered": 7475,
      "ĠVisit": 7476,
      "Ġroles": 7477,
      "Ġcommit": 7478,
      "Ġrelated": 7479,
      "urst": 7480,
      "grade": 7481,
      "bubble": 7482,
      "Ġapproaches": 7483,
      "Float": 7484,
      "åŃĺåľ¨": 7485,
      "ĠCache": 7486,
      "park": 7487,
      "Ġavailability": 7488,
      "ĠCaesar": 7489,
      "ictions": 7490,
      "Ġmag": 7491,
      "ĠSelection": 7492,
      "Ġfocusing": 7493,
      "Parser": 7494,
      "ĠPy": 7495,
      "express": 7496,
      "Ġarchitecture": 7497,
      "Ġmanipulate": 7498,
      "æĭŁ": 7499,
      "Ġbank": 7500,
      "Ġidentifier": 7501,
      "Ġwater": 7502,
      "Ġpathfinding": 7503,
      "arily": 7504,
      "(()": 7505,
      "æĻ¯": 7506,
      "atives": 7507,
      "ĠAverage": 7508,
      "ä»·": 7509,
      "hanoi": 7510,
      "ACKET": 7511,
      "ertific": 7512,
      "ĠCSS": 7513,
      "ĠHeap": 7514,
      "Ġquantum": 7515,
      ")).": 7516,
      "specific": 7517,
      "å·®": 7518,
      "ED": 7519,
      "Ġareas": 7520,
      "Ġmembers": 7521,
      "GN": 7522,
      "Ġseparated": 7523,
      "Ġpriorities": 7524,
      "Ġreaches": 7525,
      "Ġisn": 7526,
      "Ġexplores": 7527,
      "My": 7528,
      "uning": 7529,
      "ĠInsertion": 7530,
      "Ġinsertions": 7531,
      "ont": 7532,
      "ĠNon": 7533,
      "ĠEncrypt": 7534,
      "duled": 7535,
      "Pop": 7536,
      "åĲį": 7537,
      "Ġslicing": 7538,
      "separated": 7539,
      "ongoose": 7540,
      "ĠSignature": 7541,
      "blue": 7542,
      "Ġ\"\\": 7543,
      "IS": 7544,
      "Ġsubsc": 7545,
      "venue": 7546,
      "èİ·åıĸ": 7547,
      "Ġpackets": 7548,
      "ossible": 7549,
      "Ġker": 7550,
      "Ġbroadcast": 7551,
      "Sample": 7552,
      "Ġextended": 7553,
      "Two": 7554,
      "Ġpeek": 7555,
      "Ġanalyzing": 7556,
      "Ġhex": 7557,
      "ĠDecision": 7558,
      "Ġrates": 7559,
      "å¹¶è¿ĶåĽŀ": 7560,
      "Normal": 7561,
      "final": 7562,
      "complex": 7563,
      "Async": 7564,
      "ĠSorted": 7565,
      "ĠEncryption": 7566,
      "Ġhybrid": 7567,
      "Ġgeneric": 7568,
      "Assert": 7569,
      "Ford": 7570,
      "æŀĦå»º": 7571,
      "Ob": 7572,
      "Ġmanaged": 7573,
      "unity": 7574,
      "Ġboundaries": 7575,
      "ĠProvides": 7576,
      "ĠFOR": 7577,
      "middle": 7578,
      "oper": 7579,
      "ĠAS": 7580,
      "Ġhighlight": 7581,
      "cks": 7582,
      "Ġdetermining": 7583,
      "ĠTests": 7584,
      "matches": 7585,
      "å°ĳ": 7586,
      "cation": 7587,
      "bile": 7588,
      "æıĴ": 7589,
      "Row": 7590,
      "ĠTim": 7591,
      "alphab": 7592,
      "Ġdegree": 7593,
      "ĠDE": 7594,
      "]]`.": 7595,
      "Ġfig": 7596,
      ":\"": 7597,
      "params": 7598,
      "æĿĥ": 7599,
      "buckets": 7600,
      "Title": 7601,
      "çªĹ": 7602,
      "required": 7603,
      "Ġht": 7604,
      "ulo": 7605,
      "ĠOAuth": 7606,
      "Requirements": 7607,
      "merged": 7608,
      "Ġincreases": 7609,
      "æĦ": 7610,
      "Ġenough": 7611,
      "Ġsatisfied": 7612,
      "ĠéģįåİĨ": 7613,
      "permutations": 7614,
      "Ġrecommendations": 7615,
      "debug": 7616,
      "Ġclosure": 7617,
      "'`:": 7618,
      "Ġdecre": 7619,
      "Ġexpect": 7620,
      "irebase": 7621,
      "Game": 7622,
      "limiter": 7623,
      "backup": 7624,
      "æĸŃ": 7625,
      "Ġdenominations": 7626,
      "Util": 7627,
      "Level": 7628,
      "Ġmicro": 7629,
      "enu": 7630,
      "Debug": 7631,
      "çªĹåı£": 7632,
      "Ġpreprocess": 7633,
      "ĠConfiguration": 7634,
      "å±ķ": 7635,
      "}\\": 7636,
      "åĩºçİ°": 7637,
      "gins": 7638,
      "Ġunsorted": 7639,
      "Ġbecome": 7640,
      "simulate": 7641,
      "Ġmonitor": 7642,
      "bs": 7643,
      "è·Ŀç¦»": 7644,
      "98": 7645,
      "usion": 7646,
      "plaintext": 7647,
      "uit": 7648,
      "Trie": 7649,
      "Ġintermediate": 7650,
      "Ġexam": 7651,
      "Option": 7652,
      "ĠManages": 7653,
      "=$(": 7654,
      "Ġtimeout": 7655,
      "Ġnotification": 7656,
      "peak": 7657,
      "Ġ101": 7658,
      "Processor": 7659,
      "encoded": 7660,
      "shared": 7661,
      "ä¼ļ": 7662,
      "][]": 7663,
      "Ġsitu": 7664,
      "Ġaxis": 7665,
      "Ġpersist": 7666,
      "Ġplaintext": 7667,
      "One": 7668,
      "ĠCircular": 7669,
      "Imagine": 7670,
      "ĠDivide": 7671,
      "Ġyears": 7672,
      "Ġæ£ĢæŁ¥": 7673,
      "Ġdeleted": 7674,
      "datetime": 7675,
      "Ġconnects": 7676,
      "åĪĴ": 7677,
      "Ġbalancing": 7678,
      "Ġsaving": 7679,
      "é«ĺæķĪ": 7680,
      "arbage": 7681,
      "Ġsessions": 7682,
      "Ġear": 7683,
      "ä¸ĭéĿ¢": 7684,
      "Ġsubstit": 7685,
      "ife": 7686,
      "Ġtentative": 7687,
      "28": 7688,
      "visual": 7689,
      "ulner": 7690,
      "Ġhapp": 7691,
      "gener": 7692,
      "éĢŁ": 7693,
      "Ġ255": 7694,
      "oter": 7695,
      "activity": 7696,
      "Ġarrange": 7697,
      "Ġheapify": 7698,
      "rute": 7699,
      "Ġcorout": 7700,
      "Ġsubtrees": 7701,
      "chr": 7702,
      "Ġgorout": 7703,
      "ĠSpace": 7704,
      "Ġenter": 7705,
      "RACKET": 7706,
      "ĠDist": 7707,
      "apacities": 7708,
      "Ġshows": 7709,
      "Sales": 7710,
      "æĺ¯ä¸Ģä¸ª": 7711,
      "Upper": 7712,
      "tan": 7713,
      "auto": 7714,
      "Ġ''": 7715,
      "ĠBreadth": 7716,
      "Ġdiscuss": 7717,
      "Ġio": 7718,
      "offs": 7719,
      "Ġ|>": 7720,
      "anumeric": 7721,
      "Ġtransitions": 7722,
      "ĠLinked": 7723,
      "Dele": 7724,
      "indexed": 7725,
      "Ġsender": 7726,
      "Ġwrap": 7727,
      "Ġideal": 7728,
      "Ġscalable": 7729,
      "Ġcollected": 7730,
      "faces": 7731,
      "Range": 7732,
      "Apply": 7733,
      "ĠIoT": 7734,
      "Ġ10000": 7735,
      "heapq": 7736,
      "Ġ')": 7737,
      "tial": 7738,
      "Ġexchange": 7739,
      "Ġnothing": 7740,
      "Objective": 7741,
      "ccurrences": 7742,
      "repe": 7743,
      "Ġtow": 7744,
      "Dict": 7745,
      "TYPESCRIPT": 7746,
      "Ġbackward": 7747,
      "Ġtimestamps": 7748,
      "èĩª": 7749,
      "Ġoptional": 7750,
      "æıĴåħ¥": 7751,
      "åĲĪå¹¶": 7752,
      "conquer": 7753,
      "åł": 7754,
      "åľºæĻ¯": 7755,
      "ifth": 7756,
      "Ġgap": 7757,
      "ĠCreating": 7758,
      "Ġiterator": 7759,
      "ĠUnique": 7760,
      "é¡º": 7761,
      "urch": 7762,
      "expr": 7763,
      "partite": 7764,
      "Ġbattery": 7765,
      "Ġcentral": 7766,
      "Ġ'/": 7767,
      "Ġappropriately": 7768,
      "Ġindepend": 7769,
      "UR": 7770,
      "Ġneural": 7771,
      "ĠSimulation": 7772,
      "ortion": 7773,
      "Ġattribute": 7774,
      "ĠCar": 7775,
      "ng": 7776,
      "Ġequival": 7777,
      "Ġanaly": 7778,
      "FROM": 7779,
      "Ġ/>": 7780,
      "ransition": 7781,
      "hex": 7782,
      "arge": 7783,
      "Ġtemperatures": 7784,
      "Ġ'__": 7785,
      "database": 7786,
      "uel": 7787,
      "Ġpreventing": 7788,
      "Ġbuy": 7789,
      "oute": 7790,
      "versions": 7791,
      "Employee": 7792,
      "Ġhashes": 7793,
      "Ġsecret": 7794,
      "Ġstatements": 7795,
      "}\",": 7796,
      "DD": 7797,
      "Ġsrc": 7798,
      "tokens": 7799,
      "Ġpresence": 7800,
      "Linear": 7801,
      "three": 7802,
      "Ġmodifying": 7803,
      "Ġisol": 7804,
      "ĠDeploy": 7805,
      "ĠAdding": 7806,
      "Ġaccomplish": 7807,
      "packet": 7808,
      "role": 7809,
      "Ġdetermined": 7810,
      "amless": 7811,
      "Squares": 7812,
      "ĠInitializes": 7813,
      "Ġgrayscale": 7814,
      "Ġstrength": 7815,
      "Ġ??))": 7816,
      "Ġleverage": 7817,
      "Ġ29": 7818,
      "Ġresol": 7819,
      "Ġeasier": 7820,
      "]),": 7821,
      "sty": 7822,
      "åħ³éĶ®éĢ»è¾ĳ": 7823,
      "Ġrearran": 7824,
      "device": 7825,
      "except": 7826,
      "ĠModule": 7827,
      "Builder": 7828,
      "MPLE": 7829,
      "renhe": 7830,
      "ahrenhe": 7831,
      "Ġ\\\\": 7832,
      "ahrenheit": 7833,
      "ailure": 7834,
      "register": 7835,
      "conf": 7836,
      "ArrayList": 7837,
      "åŃĲä¸²": 7838,
      "åĿĹ": 7839,
      "aab": 7840,
      "ĠKMP": 7841,
      "ç»ĦåĲĪ": 7842,
      "health": 7843,
      "__':": 7844,
      "quire": 7845,
      "Ġprinting": 7846,
      "ĠIterative": 7847,
      "transformed": 7848,
      "never": 7849,
      "SER": 7850,
      "Ġpercentage": 7851,
      "real": 7852,
      "Ġ\\((": 7853,
      "åıį": 7854,
      "Ġtriple": 7855,
      "available": 7856,
      "Ġcsv": 7857,
      "Ġlogged": 7858,
      "Ġsci": 7859,
      "Ġdisplaying": 7860,
      "Ġ!==": 7861,
      "Grid": 7862,
      "ĠWindow": 7863,
      "bind": 7864,
      "ifications": 7865,
      "Second": 7866,
      "ĠHashMap": 7867,
      "cba": 7868,
      "sig": 7869,
      "Ġrespect": 7870,
      "Ġconcise": 7871,
      "Ġmobile": 7872,
      "åłĨ": 7873,
      "decimal": 7874,
      "Ġpolynomial": 7875,
      "kip": 7876,
      "parts": 7877,
      "Ġgeom": 7878,
      "å¸Į": 7879,
      "sensor": 7880,
      "Ġreachable": 7881,
      "save": 7882,
      "Scaler": 7883,
      "Ġms": 7884,
      "Ġconsumption": 7885,
      "Ġyields": 7886,
      "Ġseq": 7887,
      "ĠStarting": 7888,
      "month": 7889,
      "Ġforms": 7890,
      "ĠAttempt": 7891,
      "ratic": 7892,
      "ĠUpdates": 7893,
      "DIR": 7894,
      "Ġ1000000": 7895,
      "è°ĥæķ´": 7896,
      "ĠREF": 7897,
      "åģĩ": 7898,
      "ĠUseful": 7899,
      "Ġ`{\"": 7900,
      "Ġrobustness": 7901,
      "altern": 7902,
      "Ġapproxim": 7903,
      "Ġshort": 7904,
      "Ġreferences": 7905,
      "åħ¨": 7906,
      "åĽłä¸º": 7907,
      "resize": 7908,
      "Rectangle": 7909,
      "Ġweek": 7910,
      "éĥ½": 7911,
      "sequences": 7912,
      "1024": 7913,
      "ĠReport": 7914,
      "ĠVisualize": 7915,
      "Classifier": 7916,
      "amer": 7917,
      "Ġvolume": 7918,
      "ĠGra": 7919,
      "Ġpopular": 7920,
      "Ġ([": 7921,
      "IFO": 7922,
      "Ġclassify": 7923,
      "ĠEvaluation": 7924,
      "NCES": 7925,
      "Compare": 7926,
      "Ġintro": 7927,
      "Ġscalability": 7928,
      "factors": 7929,
      "pid": 7930,
      "dices": 7931,
      "sian": 7932,
      "Point": 7933,
      "ĠGroup": 7934,
      "Ġmiddleware": 7935,
      "Ġmutable": 7936,
      "Ġsignal": 7937,
      "Ġforecast": 7938,
      ">&": 7939,
      "åĪ©çĶ¨": 7940,
      "é¦ĸ": 7941,
      "Ġfeas": 7942,
      "iddleware": 7943,
      "adratic": 7944,
      "Ġconsisting": 7945,
      "å¿«": 7946,
      "ĠCost": 7947,
      "Change": 7948,
      "vacy": 7949,
      "Ġtranspose": 7950,
      "Ġdepartment": 7951,
      "Ġclassifier": 7952,
      "eatures": 7953,
      "friendly": 7954,
      "EGIN": 7955,
      "option": 7956,
      "Ġgain": 7957,
      "Ġ'*": 7958,
      "Ġaccounts": 7959,
      "deed": 7960,
      "space": 7961,
      "ĠCharacters": 7962,
      "ALU": 7963,
      "categor": 7964,
      "Ġsensitive": 7965,
      "Ġseamless": 7966,
      "Certain": 7967,
      "Ġsoftware": 7968,
      "Sto": 7969,
      "å®¹": 7970,
      "Ġindexes": 7971,
      "remaining": 7972,
      "mpt": 7973,
      "Customer": 7974,
      "Ġconsonants": 7975,
      "è°ĥçĶ¨": 7976,
      "ERENCES": 7977,
      "Ġexponential": 7978,
      "Ġcompati": 7979,
      "Ġwaiting": 7980,
      "ĠStorage": 7981,
      "Certainly": 7982,
      "ĠBool": 7983,
      "vantages": 7984,
      "ĠConfigure": 7985,
      "iles": 7986,
      "cons": 7987,
      "Ġrobot": 7988,
      "cart": 7989,
      "Memoization": 7990,
      "astic": 7991,
      "ĠSE": 7992,
      "lored": 7993,
      "Ġresolve": 7994,
      "decess": 7995,
      "ĠRow": 7996,
      "ĠREFERENCES": 7997,
      "Ġflexibility": 7998,
      "Description": 7999,
      "Ġoptimizations": 8000,
      "Ġsentences": 8001,
      "Ġannot": 8002,
      "cdot": 8003,
      "Ġpages": 8004,
      "endencies": 8005,
      "ĠDes": 8006,
      "Ġrisk": 8007,
      "Ġlimited": 8008,
      "ĠLPS": 8009,
      "FO": 8010,
      "ranches": 8011,
      "ĠRece": 8012,
      "uestion": 8013,
      "template": 8014,
      "åĵĪ": 8015,
      "ä½ł": 8016,
      "ï¼īãĢĤ": 8017,
      "median": 8018,
      "Ġsides": 8019,
      "Ġcame": 8020,
      "LT": 8021,
      "éªĮè¯ģ": 8022,
      "Te": 8023,
      "1111": 8024,
      "Means": 8025,
      "__)": 8026,
      "Ġshare": 8027,
      "Ġchoosing": 8028,
      "Ġexploration": 8029,
      "Shortest": 8030,
      "catter": 8031,
      "Ġinstead": 8032,
      "reatest": 8033,
      "Ġsmooth": 8034,
      "ticles": 8035,
      "Ġdescribed": 8036,
      "eloc": 8037,
      "éļ": 8038,
      "Ġanomalies": 8039,
      "ĠAnd": 8040,
      "xyz": 8041,
      "Web": 8042,
      "'ve": 8043,
      "Ġhost": 8044,
      "Ġsym": 8045,
      "Ġimmutable": 8046,
      "nextInt": 8047,
      "figure": 8048,
      "lope": 8049,
      "Ġresolution": 8050,
      "Att": 8051,
      "Des": 8052,
      "ĠDetect": 8053,
      "Ġciphertext": 8054,
      "GCD": 8055,
      "Non": 8056,
      "Ġimpl": 8057,
      "models": 8058,
      "ĠOverview": 8059,
      "processed": 8060,
      "Ġaccurate": 8061,
      "licit": 8062,
      "Ġreview": 8063,
      "åıĤ": 8064,
      "Ġnpm": 8065,
      "eness": 8066,
      "elsius": 8067,
      "employee": 8068,
      "pointer": 8069,
      "Ġbrowser": 8070,
      "Exp": 8071,
      "æ¨¡æĭŁ": 8072,
      "Values": 8073,
      "Ġcustomers": 8074,
      "æľº": 8075,
      "Out": 8076,
      "pandas": 8077,
      "ç»Ń": 8078,
      "Enum": 8079,
      "Age": 8080,
      "Ġverification": 8081,
      ")\")": 8082,
      "verages": 8083,
      "Ġpolygon": 8084,
      "Ġ64": 8085,
      "intervals": 8086,
      "Ġcalculator": 8087,
      "cell": 8088,
      "Ġalternate": 8089,
      "ĠTower": 8090,
      "free": 8091,
      "Ġadapt": 8092,
      "coder": 8093,
      "IME": 8094,
      "Ġassess": 8095,
      "Ġappending": 8096,
      "Ġenhancing": 8097,
      "jpg": 8098,
      "destination": 8099,
      "Ġintegrate": 8100,
      "lier": 8101,
      "#!/": 8102,
      "commit": 8103,
      "header": 8104,
      "Ġcorre": 8105,
      "åģĩè®¾": 8106,
      "entiation": 8107,
      "codes": 8108,
      "ĠMer": 8109,
      "ĠæĿ¥": 8110,
      "dimension": 8111,
      "reach": 8112,
      "[:,": 8113,
      "Tim": 8114,
      "`):": 8115,
      "Ġmetadata": 8116,
      "ĠArrays": 8117,
      "Ġversions": 8118,
      "æ®µ": 8119,
      "bn": 8120,
      "Ġplatforms": 8121,
      "Ġcurr": 8122,
      "aun": 8123,
      "admin": 8124,
      "Ġmill": 8125,
      "alloc": 8126,
      "Ġothers": 8127,
      "slice": 8128,
      "Ġconfigure": 8129,
      "ons": 8130,
      "Ġfailures": 8131,
      "ficial": 8132,
      "greater": 8133,
      "requests": 8134,
      "Ġsalary": 8135,
      "Ġandroid": 8136,
      "ĠBreak": 8137,
      "dog": 8138,
      "Ġsimplify": 8139,
      "command": 8140,
      "speed": 8141,
      "Ġisinstance": 8142,
      "${": 8143,
      "Ġclosing": 8144,
      "('-": 8145,
      "Ġroad": 8146,
      "ayout": 8147,
      "olleh": 8148,
      "Ġconcept": 8149,
      "çŃĸ": 8150,
      "bases": 8151,
      "Ġtrade": 8152,
      "document": 8153,
      "Ġreviews": 8154,
      "duplic": 8155,
      "Simple": 8156,
      "Ġusize": 8157,
      "ĠConstraints": 8158,
      "pochs": 8159,
      "Ġhashlib": 8160,
      "Engine": 8161,
      "EIGN": 8162,
      "Ġmeeting": 8163,
      "Ġdifficulty": 8164,
      "erial": 8165,
      "Ġunless": 8166,
      "åįķè¯į": 8167,
      "decrypted": 8168,
      "Ġprofile": 8169,
      "Ġexpanded": 8170,
      "æĶ¯": 8171,
      "Ġfraction": 8172,
      "Negative": 8173,
      "dev": 8174,
      "angular": 8175,
      "Ġche": 8176,
      "Ġ400": 8177,
      "Ġobstacle": 8178,
      "ender": 8179,
      "todo": 8180,
      "coordin": 8181,
      "Ġangle": 8182,
      "collections": 8183,
      "ĠGUI": 8184,
      "Substring": 8185,
      "rove": 8186,
      "uniform": 8187,
      "ĠLambda": 8188,
      "($\"": 8189,
      "Ġranges": 8190,
      "å®ŀçİ°ä¸Ģä¸ª": 8191,
      "Ġmanually": 8192,
      "Enhance": 8193,
      "ipulation": 8194,
      "ams": 8195,
      "Ġaudio": 8196,
      "ĠDistance": 8197,
      "ĠMultiply": 8198,
      "ĠConverts": 8199,
      "Ġquality": 8200,
      "loss": 8201,
      "å¼Ĥ": 8202,
      "anges": 8203,
      "<>();": 8204,
      "AF": 8205,
      "Ġtransmission": 8206,
      "ç³»ç»Ł": 8207,
      "ĠSecure": 8208,
      "Ġski": 8209,
      "ĠFOREIGN": 8210,
      "éĽĨåĲĪ": 8211,
      "]]`": 8212,
      "Ġbst": 8213,
      "{\"": 8214,
      "éĿŀ": 8215,
      "ä¾Ľ": 8216,
      "Ġnavigate": 8217,
      "Ġslot": 8218,
      "schedul": 8219,
      "Ġgrowth": 8220,
      "Ġindeed": 8221,
      "Ġtag": 8222,
      "Ġpractice": 8223,
      "posts": 8224,
      "ä¸»": 8225,
      "person": 8226,
      "Ġdownload": 8227,
      "Ġenable": 8228,
      "Division": 8229,
      "Current": 8230,
      "Ġ`[(": 8231,
      "Ġtoggle": 8232,
      "åĩı": 8233,
      "çī©": 8234,
      "Ġdebugging": 8235,
      "utability": 8236,
      "perv": 8237,
      "Ġjoined": 8238,
      "ongoDB": 8239,
      "Visualization": 8240,
      "Items": 8241,
      "Ġpurchase": 8242,
      "Ġplots": 8243,
      "Ġassum": 8244,
      "æľĢçŁŃ": 8245,
      "Ġmergesort": 8246,
      "Ġ`??": 8247,
      "è¢": 8248,
      "Ġloaded": 8249,
      "æķ°ç»ĦçļĦ": 8250,
      "loads": 8251,
      "éĥ¨åĪĨ": 8252,
      "Join": 8253,
      "dual": 8254,
      "Ġinvolve": 8255,
      "trim": 8256,
      "ĠNum": 8257,
      "ĠSolve": 8258,
      "Ġcentroids": 8259,
      "perpar": 8260,
      "abling": 8261,
      ".\",": 8262,
      "PL": 8263,
      "miti": 8264,
      "Ġvariance": 8265,
      "Ġdeletions": 8266,
      "subsequence": 8267,
      "Def": 8268,
      "mutex": 8269,
      "ĠThey": 8270,
      "Vehicle": 8271,
      "Ġperimeter": 8272,
      "Position": 8273,
      "Ġcontinuously": 8274,
      "ĠCondition": 8275,
      "Instance": 8276,
      "é¡ºåºı": 8277,
      "Ġrelationship": 8278,
      "cheduler": 8279,
      "Ġdirectories": 8280,
      "çĦ¶åĲİ": 8281,
      "Ġwriter": 8282,
      "ĠAccuracy": 8283,
      "ancer": 8284,
      "è¿Ļç§į": 8285,
      "SAMPLE": 8286,
      "åĪ¤": 8287,
      "Ġreduction": 8288,
      "Ġavoids": 8289,
      "anguages": 8290,
      "Ġhome": 8291,
      "Ġprobing": 8292,
      "([\"": 8293,
      "ING": 8294,
      "arg": 8295,
      "formed": 8296,
      "house": 8297,
      "ç®¡": 8298,
      "ç¼Ģ": 8299,
      "ropy": 8300,
      "Player": 8301,
      "Ġdecrement": 8302,
      "essaging": 8303,
      "ĠLRU": 8304,
      ")}\")": 8305,
      "ĠGu": 8306,
      "Ġnamespace": 8307,
      "><": 8308,
      "Ġenhanced": 8309,
      "These": 8310,
      "Ġevaluating": 8311,
      "Ġchart": 8312,
      "comes": 8313,
      "LUA": 8314,
      "ĠUnit": 8315,
      "Ġdest": 8316,
      "æ¡Ī": 8317,
      "Dijkstra": 8318,
      "ĠDict": 8319,
      "field": 8320,
      "Ġthrows": 8321,
      "NotFound": 8322,
      "Ġaddresses": 8323,
      "Ġexcluding": 8324,
      "è¢«": 8325,
      "inclusive": 8326,
      "JWT": 8327,
      "ĠChecking": 8328,
      "æ¯ıä¸Ģ": 8329,
      "ĠAny": 8330,
      "kes": 8331,
      "Ġreadings": 8332,
      "Ġsymbo": 8333,
      "[$": 8334,
      "Balance": 8335,
      "-%": 8336,
      "Ġgets": 8337,
      "Ġtraditional": 8338,
      "Ġordered": 8339,
      "orange": 8340,
      "Ġequivalent": 8341,
      "ĠContent": 8342,
      "äºĮç»´": 8343,
      "æ¶": 8344,
      "Logging": 8345,
      "cii": 8346,
      "Ġgrade": 8347,
      "ĠAtt": 8348,
      "Ġsig": 8349,
      "æĿŁ": 8350,
      "æ¯Ķè¾ĥ": 8351,
      "Combine": 8352,
      "(:": 8353,
      "ordered": 8354,
      "ĠProducts": 8355,
      "Ġconflict": 8356,
      "Ġinher": 8357,
      "Ġtrait": 8358,
      "Ġenters": 8359,
      "Ġlogical": 8360,
      "Ġbin": 8361,
      "ernet": 8362,
      "Ġpad": 8363,
      "ancy": 8364,
      "ĠCloud": 8365,
      "solution": 8366,
      "ids": 8367,
      "costs": 8368,
      "ecar": 8369,
      "Ġxs": 8370,
      "Ġgoes": 8371,
      "å®ī": 8372,
      "åħĥç´łçļĦ": 8373,
      "Ġ??,": 8374,
      "Ġ75": 8375,
      "strong": 8376,
      "ĠPoint": 8377,
      "TT": 8378,
      "åĮ¹": 8379,
      "Ġpredicate": 8380,
      "ĠControl": 8381,
      "arry": 8382,
      "è¯¦": 8383,
      "earning": 8384,
      "éĩįå¤į": 8385,
      "åĮ¹éħį": 8386,
      "Ġstarted": 8387,
      "pack": 8388,
      "ï¼Į`": 8389,
      "sibility": 8390,
      "ires": 8391,
      "åĵĪå¸Į": 8392,
      "æ¯į": 8393,
      "agnostics": 8394,
      "Demonstr": 8395,
      "ama": 8396,
      "æľĢåĲİ": 8397,
      "Ġinserted": 8398,
      "Maximum": 8399,
      "Ġhidden": 8400,
      "Schema": 8401,
      "far": 8402,
      "Ġsplitting": 8403,
      "ĠSize": 8404,
      "ĠKruskal": 8405,
      "Ġsubtraction": 8406,
      "optimal": 8407,
      "strategy": 8408,
      "abab": 8409,
      "Flow": 8410,
      "ĠAPIs": 8411,
      "Depth": 8412,
      "ĠCreation": 8413,
      "34": 8414,
      "structure": 8415,
      "Ġrendering": 8416,
      "exists": 8417,
      "hite": 8418,
      "Counting": 8419,
      "Ġmeasures": 8420,
      "ĠFunctionality": 8421,
      "aml": 8422,
      "Ġnoise": 8423,
      "Ġtk": 8424,
      "Do": 8425,
      "Ġsignature": 8426,
      "Ġrandomly": 8427,
      "ills": 8428,
      "ç®ĢåįķçļĦ": 8429,
      "åĽ´": 8430,
      "deque": 8431,
      "Ġtick": 8432,
      "Ġvi": 8433,
      "ĠFit": 8434,
      "?`": 8435,
      "lazy": 8436,
      "Products": 8437,
      "åį³": 8438,
      "æ²": 8439,
      "Push": 8440,
      "Unit": 8441,
      "concat": 8442,
      "ggplot": 8443,
      "ä¸ºç©º": 8444,
      "iver": 8445,
      "Ġaccurately": 8446,
      "ĠNote": 8447,
      "ĠRequest": 8448,
      "classi": 8449,
      "abcd": 8450,
      "Ġimpossible": 8451,
      "recv": 8452,
      "Ġsyntax": 8453,
      "Ġiniti": 8454,
      "ĠChange": 8455,
      "Login": 8456,
      "Ġvideo": 8457,
      "enal": 8458,
      "Ġtrace": 8459,
      "Ġwants": 8460,
      "Ġcomparator": 8461,
      "ĠRegression": 8462,
      "Ġencounter": 8463,
      "Ġfewer": 8464,
      "Ġcategorical": 8465,
      "oney": 8466,
      "take": 8467,
      "Ġ\\(\\": 8468,
      "ĠuseState": 8469,
      "sitivity": 8470,
      "compressed": 8471,
      "CC": 8472,
      "echno": 8473,
      "center": 8474,
      "Ġcapacities": 8475,
      "è¿ĩç¨ĭ": 8476,
      "åŃĹæ¯į": 8477,
      "Ġmuch": 8478,
      "Ġorig": 8479,
      "Ġupload": 8480,
      "Ġexecutes": 8481,
      "los": 8482,
      "Ġearly": 8483,
      "Ġfruit": 8484,
      "Feature": 8485,
      "oto": 8486,
      "ĠAuthor": 8487,
      "fast": 8488,
      "Ġdiffer": 8489,
      "Ġrecall": 8490,
      "verify": 8491,
      "ERR": 8492,
      "BEGIN": 8493,
      "ĠFoundation": 8494,
      "Ġsaved": 8495,
      "MAX": 8496,
      "Ġconcepts": 8497,
      "ĠAuthentication": 8498,
      "Ġsensors": 8499,
      "Dist": 8500,
      "Ġpostorder": 8501,
      "Ġinflu": 8502,
      "Ġprogress": 8503,
      "ĠFrom": 8504,
      "/<": 8505,
      "Ġmultiples": 8506,
      "handler": 8507,
      "Ġstyle": 8508,
      "29": 8509,
      "Ġprojects": 8510,
      "Ġcre": 8511,
      "Ġsections": 8512,
      "Ġbenchmark": 8513,
      "dimensional": 8514,
      "only": 8515,
      "byte": 8516,
      "mst": 8517,
      ")^": 8518,
      "Ġplotting": 8519,
      "120": 8520,
      "`;": 8521,
      "nowledge": 8522,
      "Ġreliability": 8523,
      "enetic": 8524,
      "Ġguard": 8525,
      "Ġtracks": 8526,
      "Ġenabling": 8527,
      "å¤Ł": 8528,
      "ĠUnderstanding": 8529,
      "!\".": 8530,
      "Ġaccessing": 8531,
      "samples": 8532,
      "hattan": 8533,
      "ĠNormalize": 8534,
      "vas": 8535,
      "=[\"": 8536,
      "Ġdealing": 8537,
      "Zero": 8538,
      "Ġuniform": 8539,
      "chunk": 8540,
      "messages": 8541,
      "ĠFlutter": 8542,
      "ias": 8543,
      "ç®¡çĲĨ": 8544,
      "Pred": 8545,
      "Ġassuming": 8546,
      "Ġidentified": 8547,
      "atost": 8548,
      "henes": 8549,
      "atosthenes": 8550,
      "FA": 8551,
      "Ġidea": 8552,
      "NSERT": 8553,
      "ĠModify": 8554,
      "Ġdetecting": 8555,
      "gesort": 8556,
      "Safe": 8557,
      "Ġmarked": 8558,
      "Ġstability": 8559,
      "åĪ¤æĸŃ": 8560,
      "Ġmoder": 8561,
      "è¯¢": 8562,
      "ww": 8563,
      "Ġdistribute": 8564,
      "joint": 8565,
      "ĠTechn": 8566,
      "Ġcard": 8567,
      "è§£æŀĲ": 8568,
      "ĠCopy": 8569,
      "Ġjwt": 8570,
      "straint": 8571,
      "å·¥": 8572,
      "çļĦæľĢå¤§": 8573,
      "git": 8574,
      "union": 8575,
      "conv": 8576,
      "Extend": 8577,
      "Ġtodo": 8578,
      "çķ¥": 8579,
      "itles": 8580,
      "ĠPrepare": 8581,
      "Ġtransforms": 8582,
      "ĠShape": 8583,
      "Ġregister": 8584,
      "onym": 8585,
      "Ġlocations": 8586,
      "ĠPartition": 8587,
      "ç»ı": 8588,
      "ç®Ĺæ³ķçļĦ": 8589,
      "ios": 8590,
      "ĠVisualization": 8591,
      "Ġpersonal": 8592,
      "ĠObject": 8593,
      "Ġlexicographically": 8594,
      "Solving": 8595,
      "Ġuplo": 8596,
      "knapsack": 8597,
      "Ġanim": 8598,
      "âĶĢâĶĢ": 8599,
      "Ġæĺ¯": 8600,
      "JOIN": 8601,
      "pagation": 8602,
      "æıĲä¾Ľ": 8603,
      "students": 8604,
      "subset": 8605,
      "ĠFrequency": 8606,
      "card": 8607,
      "SP": 8608,
      "Ġcomplexities": 8609,
      "åıĤæķ°": 8610,
      "ĠCipher": 8611,
      "Ġexploring": 8612,
      "Ġdummy": 8613,
      "ĠCircle": 8614,
      "å¤§å°ı": 8615,
      "Collect": 8616,
      "circle": 8617,
      "liers": 8618,
      "cv": 8619,
      "trained": 8620,
      "')]": 8621,
      "ĠDiffe": 8622,
      "ĠDuring": 8623,
      "Ġchr": 8624,
      "ĠEven": 8625,
      "img": 8626,
      "Ġveloc": 8627,
      "ç»Ĩ": 8628,
      "Ġmatched": 8629,
      "Ġexponent": 8630,
      "Future": 8631,
      "ĠCommon": 8632,
      "Ġreports": 8633,
      "Student": 8634,
      "Ġalerts": 8635,
      "WHERE": 8636,
      "IST": 8637,
      "Ġcube": 8638,
      "Ġher": 8639,
      "bitr": 8640,
      "uples": 8641,
      "Ġ'-": 8642,
      "Ġcout": 8643,
      "abcabc": 8644,
      "çķĮ": 8645,
      "vex": 8646,
      "Ġ),": 8647,
      "Ġaggreg": 8648,
      "ĠComputes": 8649,
      "tries": 8650,
      "ĠSales": 8651,
      "Ġdeadlock": 8652,
      "èĻ": 8653,
      "authorized": 8654,
      "æŁ¥è¯¢": 8655,
      "amera": 8656,
      "marize": 8657,
      "ips": 8658,
      "drop": 8659,
      "æĸ¹æ¡Ī": 8660,
      "Ġåľ¨": 8661,
      "Can": 8662,
      "sy": 8663,
      "aits": 8664,
      "Ġsqlite": 8665,
      "Ġwhitespace": 8666,
      "Digits": 8667,
      "§è¡Į": 8668,
      "Ġexclude": 8669,
      "ĠSkip": 8670,
      "Ġhull": 8671,
      "Ġ99": 8672,
      "ĠInvalid": 8673,
      "é¦ĸåħĪ": 8674,
      "ĠGenServer": 8675,
      "uppercase": 8676,
      "Ġaccumulate": 8677,
      "NF": 8678,
      "æī§è¡Į": 8679,
      "gges": 8680,
      "ĠSingleton": 8681,
      "Ġdeviation": 8682,
      "Ġlistener": 8683,
      "choice": 8684,
      "ocation": 8685,
      "Ġstreams": 8686,
      "Ġneighboring": 8687,
      "Ġpreferred": 8688,
      "ĠTransaction": 8689,
      "Ġeffect": 8690,
      "æµĭè¯ķ": 8691,
      "Ġgit": 8692,
      "Action": 8693,
      "atches": 8694,
      "Ġalert": 8695,
      "mounts": 8696,
      "Ġsumm": 8697,
      "poly": 8698,
      "è®¾è®¡ä¸Ģä¸ª": 8699,
      "izz": 8700,
      "Fetch": 8701,
      "Ġonline": 8702,
      "andidates": 8703,
      "ĠWeather": 8704,
      "ĠSequence": 8705,
      "orphis": 8706,
      "Ġtensorflow": 8707,
      "Ġeffects": 8708,
      "figsize": 8709,
      "apture": 8710,
      "åİŁ": 8711,
      "Ġfeasible": 8712,
      "Ġmodifications": 8713,
      "lps": 8714,
      "INET": 8715,
      "Mutex": 8716,
      "Ġproduces": 8717,
      "Ġtransition": 8718,
      "hesis": 8719,
      "course": 8720,
      "Ġhypot": 8721,
      "Ġselects": 8722,
      "Ġinstruction": 8723,
      "Ġretry": 8724,
      "Ġabstract": 8725,
      "orphism": 8726,
      "ĠComb": 8727,
      "services": 8728,
      "Ġdefinition": 8729,
      "Ġdependency": 8730,
      "ç§¯": 8731,
      "Ġphysics": 8732,
      "----------------": 8733,
      "å¿ĥ": 8734,
      "GR": 8735,
      "Modify": 8736,
      "When": 8737,
      "cm": 8738,
      "Storage": 8739,
      "8080": 8740,
      "Ġchoices": 8741,
      "Payment": 8742,
      "Success": 8743,
      "onstruct": 8744,
      "budget": 8745,
      "Vec": 8746,
      "Security": 8747,
      "åıĹ": 8748,
      "pad": 8749,
      "Ġimplies": 8750,
      "Ġcurrently": 8751,
      "Ġphone": 8752,
      "Ġasynchronously": 8753,
      "ĠLogger": 8754,
      "åĬ©": 8755,
      "Ġopp": 8756,
      "ipp": 8757,
      "Ġserialization": 8758,
      "det": 8759,
      "arsh": 8760,
      "nd": 8761,
      "increasing": 8762,
      "Ġcoroutine": 8763,
      "ĠWords": 8764,
      "fact": 8765,
      "mse": 8766,
      "Ġcached": 8767,
      "Ġextraction": 8768,
      "tives": 8769,
      "inc": 8770,
      "mart": 8771,
      "CRET": 8772,
      "flo": 8773,
      "ĠConstructor": 8774,
      "Ġspecifically": 8775,
      "Ġproceeds": 8776,
      "Details": 8777,
      "127": 8778,
      "Ġpractices": 8779,
      "Ġaffec": 8780,
      "Plot": 8781,
      "Ur": 8782,
      "Partition": 8783,
      "è¿ĻäºĽ": 8784,
      "filePath": 8785,
      "Ġdigital": 8786,
      "ratch": 8787,
      "$.": 8788,
      "æķ°ç»Ħä¸Ń": 8789,
      "crypto": 8790,
      "ĠContains": 8791,
      "Ġcontract": 8792,
      "morphism": 8793,
      "Ġtoo": 8794,
      "è§Ĵ": 8795,
      "Ġaugment": 8796,
      "èĮ": 8797,
      "LS": 8798,
      "ĠâĶ": 8799,
      "Command": 8800,
      "employees": 8801,
      "Ġexport": 8802,
      "subtract": 8803,
      "sil": 8804,
      "Ġalpha": 8805,
      "ĠBased": 8806,
      "Ġslots": 8807,
      "ĠPr": 8808,
      "ĠIterates": 8809,
      "DATE": 8810,
      "Ġev": 8811,
      "èĮĥ": 8812,
      "iris": 8813,
      "Ġrecalcul": 8814,
      "Ġnone": 8815,
      "EXT": 8816,
      "optimize": 8817,
      "afka": 8818,
      "sho": 8819,
      "85": 8820,
      "ĠEfficiency": 8821,
      "åıª": 8822,
      "Ġai": 8823,
      "Ġproof": 8824,
      "activities": 8825,
      "ĠOut": 8826,
      "ĠDequeue": 8827,
      "MSE": 8828,
      "Ġpowerful": 8829,
      "ĠNumPy": 8830,
      "Ġresize": 8831,
      "star": 8832,
      "ä¹ĺ": 8833,
      "ourse": 8834,
      "!`": 8835,
      "Ġextension": 8836,
      "ĠTRUE": 8837,
      "Ġphi": 8838,
      "ĠScore": 8839,
      "ĠContinuous": 8840,
      "Ġprecedence": 8841,
      "ĠEnglish": 8842,
      "vations": 8843,
      "racecar": 8844,
      "modified": 8845,
      "sizes": 8846,
      "3333": 8847,
      "}\");": 8848,
      "expon": 8849,
      "versity": 8850,
      "oft": 8851,
      "etermin": 8852,
      "Ġretrieving": 8853,
      "Ġsimplest": 8854,
      "Page": 8855,
      "Ġlatest": 8856,
      "Ġexpir": 8857,
      "è´Ł": 8858,
      "Gra": 8859,
      "traffic": 8860,
      "assign": 8861,
      "Ġmoved": 8862,
      "aussian": 8863,
      "ĠShift": 8864,
      "Year": 8865,
      "ĠIntegrate": 8866,
      "Ġpeople": 8867,
      "ai": 8868,
      "Ġpredecess": 8869,
      "xx": 8870,
      "errors": 8871,
      "Ġlinks": 8872,
      "ĠTasks": 8873,
      "27": 8874,
      "Down": 8875,
      "adane": 8876,
      "Ġcourses": 8877,
      "ulations": 8878,
      "(|": 8879,
      "missing": 8880,
      "stdin": 8881,
      "tainer": 8882,
      "ä¸ºäºĨ": 8883,
      "global": 8884,
      "eval": 8885,
      "CSV": 8886,
      "Ġwhenever": 8887,
      "Ġpython": 8888,
      "ĠGoogle": 8889,
      "bmatrix": 8890,
      "///": 8891,
      "Ġcombining": 8892,
      "predictions": 8893,
      "rain": 8894,
      "èĥ½å¤Ł": 8895,
      "Kit": 8896,
      "Ġracket": 8897,
      "asonal": 8898,
      "arn": 8899,
      "ĠQuestion": 8900,
      "clusters": 8901,
      "AN": 8902,
      "rastr": 8903,
      "fun": 8904,
      "neighbors": 8905,
      "Ġvisits": 8906,
      "Ġchannels": 8907,
      "Ġaw": 8908,
      "ĠCollection": 8909,
      "ĠMatplotlib": 8910,
      "riting": 8911,
      "ĠMongoDB": 8912,
      "Rate": 8913,
      "Ref": 8914,
      "ious": 8915,
      "efficiency": 8916,
      "Ġpixel": 8917,
      "discount": 8918,
      "Union": 8919,
      "ĠFloyd": 8920,
      "ĠnewNode": 8921,
      "Ġinternal": 8922,
      "Fill": 8923,
      "Ġexits": 8924,
      "imin": 8925,
      "changes": 8926,
      "orator": 8927,
      "fol": 8928,
      "<?": 8929,
      "ankAccount": 8930,
      "servers": 8931,
      "calcul": 8932,
      "Specific": 8933,
      "Ġæĸ¹æ³ķ": 8934,
      "({\"": 8935,
      "æĶ¾": 8936,
      "Ġattacks": 8937,
      "Ġembed": 8938,
      "tically": 8939,
      "orders": 8940,
      "ĠPrice": 8941,
      "special": 8942,
      "ĠInitially": 8943,
      "Ġillustrate": 8944,
      "VM": 8945,
      "vies": 8946,
      "Ġleak": 8947,
      "Choose": 8948,
      "æĿ¡ä»¶çļĦ": 8949,
      "Ġregistration": 8950,
      "åĿĩ": 8951,
      "ĠINTO": 8952,
      "Ġobserve": 8953,
      "atistics": 8954,
      "Ġhumidity": 8955,
      "vity": 8956,
      "Ġwinner": 8957,
      "gence": 8958,
      "lers": 8959,
      "Digit": 8960,
      "èĢħ": 8961,
      "xs": 8962,
      "ĠBoolean": 8963,
      "moving": 8964,
      "energy": 8965,
      "Ġ',": 8966,
      "Ġamounts": 8967,
      "Component": 8968,
      "ĠAndroid": 8969,
      "Ġpus": 8970,
      "Ġwins": 8971,
      "Ġmovie": 8972,
      "toString": 8973,
      "Ġfriend": 8974,
      "Ġ(\\": 8975,
      "Ġpartial": 8976,
      "ĠLock": 8977,
      "\"},": 8978,
      "ĠHigh": 8979,
      "Ġsymbol": 8980,
      "xy": 8981,
      "aunch": 8982,
      "feed": 8983,
      ")[": 8984,
      "Ġfall": 8985,
      "Ġroads": 8986,
      "DF": 8987,
      "ĠInputs": 8988,
      "Primary": 8989,
      "ĠDemonstrates": 8990,
      "Ġability": 8991,
      "mble": 8992,
      "ottlen": 8993,
      "æĦı": 8994,
      "ottlenec": 8995,
      "æ¸": 8996,
      "\"]`": 8997,
      "ĠMock": 8998,
      "rb": 8999,
      "Ġauthenticate": 9000,
      "Ġprioritiz": 9001,
      "ium": 9002,
      "ĠAllo": 9003,
      "riven": 9004,
      "åĩĨ": 9005,
      "Ġachievable": 9006,
      "SOCK": 9007,
      "åĬłå¯Ĩ": 9008,
      "LOG": 9009,
      "mutation": 9010,
      "IOU": 9011,
      "Ġputs": 9012,
      "Amount": 9013,
      "Ġchatbot": 9014,
      "ĠDecrypt": 9015,
      "good": 9016,
      "âĢĶ": 9017,
      "Ġadjustments": 9018,
      "iction": 9019,
      "}`);": 9020,
      "02": 9021,
      "Ġstatistical": 9022,
      "iqueness": 9023,
      "Ġ[])": 9024,
      "rastructure": 9025,
      "segment": 9026,
      "Category": 9027,
      "Ġreversal": 9028,
      "Ġdecisions": 9029,
      "å±Ĥ": 9030,
      "Efficient": 9031,
      "opher": 9032,
      "Ġimportance": 9033,
      "Ġoperates": 9034,
      "Ġshifting": 9035,
      "Ġsimplifies": 9036,
      "Ġcollabor": 9037,
      "simple": 9038,
      "AY": 9039,
      "intersection": 9040,
      "ertificate": 9041,
      "æİĴåĪĹ": 9042,
      "ĠTe": 9043,
      "Ġdimension": 9044,
      "åĪł": 9045,
      "5000": 9046,
      "itions": 9047,
      "then": 9048,
      "Complex": 9049,
      "Ġadmin": 9050,
      "Diagnostics": 9051,
      "Ġcompile": 9052,
      "è§ĦåĪĴ": 9053,
      "ĠPerson": 9054,
      "âĢľ": 9055,
      "moid": 9056,
      "Ġmim": 9057,
      "Ġ\"/": 9058,
      "exit": 9059,
      "Ġconsonant": 9060,
      "Ġfifth": 9061,
      "eta": 9062,
      "Ġpopped": 9063,
      "å¿«éĢŁ": 9064,
      "Listener": 9065,
      "Match": 9066,
      "Expression": 9067,
      "Ġlater": 9068,
      "''": 9069,
      "++.": 9070,
      "Ġrepeating": 9071,
      "Ġdocuments": 9072,
      "Ġlanguages": 9073,
      "çŃĸçķ¥": 9074,
      "AA": 9075,
      "yaml": 9076,
      "Ġquanti": 9077,
      "ĠBellman": 9078,
      "Ġgreatest": 9079,
      "Ġrearrange": 9080,
      "Ġscene": 9081,
      "queens": 9082,
      "jl": 9083,
      "vo": 9084,
      "impact": 9085,
      "regex": 9086,
      "Nested": 9087,
      "ĠAutom": 9088,
      "Close": 9089,
      "Ġbenefits": 9090,
      "cursor": 9091,
      "ĠComponent": 9092,
      "Ġcros": 9093,
      "Prefix": 9094,
      "Ġmar": 9095,
      "Ġgreen": 9096,
      "Ag": 9097,
      "Ġdeposit": 9098,
      "ORD": 9099,
      "Cart": 9100,
      "Ġnltk": 9101,
      "Ġxor": 9102,
      "keras": 9103,
      "Ġkernel": 9104,
      "iodic": 9105,
      "Ġunweighted": 9106,
      "Ġbeneficial": 9107,
      "Ġmodification": 9108,
      "AEIOU": 9109,
      "LP": 9110,
      "ĠsumOf": 9111,
      "èĢĥ": 9112,
      "nitude": 9113,
      "bitrary": 9114,
      "Retrie": 9115,
      "ĠçĶ¨äºİ": 9116,
      "Ġ\";": 9117,
      "è®¡æķ°": 9118,
      "Ġdatabases": 9119,
      "ĠComplex": 9120,
      "Ġfetches": 9121,
      "Stock": 9122,
      "ĠTEXT": 9123,
      "AES": 9124,
      "Ġeffectiveness": 9125,
      "çļĦèĬĤçĤ¹": 9126,
      "Ġimportant": 9127,
      "Child": 9128,
      "Ġrepository": 9129,
      "è¿ŀæİ¥": 9130,
      "æľį": 9131,
      "Ġalter": 9132,
      "issing": 9133,
      "zeros": 9134,
      "Ġreplacing": 9135,
      "ĠConnection": 9136,
      "ĠRectangle": 9137,
      "DELETE": 9138,
      "}(": 9139,
      "123456": 9140,
      "ĠEmployee": 9141,
      "Profile": 9142,
      "Ġ5000": 9143,
      "))]": 9144,
      "ĠJOIN": 9145,
      "Dequeue": 9146,
      "enses": 9147,
      "Ġretain": 9148,
      "TPUT": 9149,
      "é¢Ħ": 9150,
      "æĪĳä»¬å°Ĩ": 9151,
      "found": 9152,
      "ç»Ļå®ļçļĦ": 9153,
      "Notification": 9154,
      "seed": 9155,
      "Ġcompress": 9156,
      "Ġconfid": 9157,
      "Last": 9158,
      "lying": 9159,
      "Ġvulner": 9160,
      "Ġreliable": 9161,
      "èĮĥåĽ´": 9162,
      "åŃ¦": 9163,
      "Ġgenerally": 9164,
      "coin": 9165,
      "Ġscheduled": 9166,
      "æľįåĬ¡": 9167,
      "Ġallocated": 9168,
      "Ġmarker": 9169,
      "gu": 9170,
      "mitives": 9171,
      "starts": 9172,
      "Ġ'#": 9173,
      "Ġcons": 9174,
      "layer": 9175,
      "é¡¹": 9176,
      "](": 9177,
      "Ġpolicy": 9178,
      "Ġbreadth": 9179,
      "queued": 9180,
      "Ġprom": 9181,
      "riber": 9182,
      "gregate": 9183,
      "dll": 9184,
      "images": 9185,
      "Ġhouse": 9186,
      "Ġdecoded": 9187,
      "interval": 9188,
      "Ġoptimizes": 9189,
      "ĠTri": 9190,
      "Ġoutcomes": 9191,
      "Ġcomment": 9192,
      "Ġdepending": 9193,
      "aybe": 9194,
      "term": 9195,
      "ĠClean": 9196,
      "ipeline": 9197,
      "Ġmanageable": 9198,
      "ç¼ĸåĨĻä¸Ģä¸ªåĩ½æķ°": 9199,
      "9999": 9200,
      "Ġserialize": 9201,
      "[:-": 9202,
      "omm": 9203,
      "BC": 9204,
      "çº§": 9205,
      "Ġclockwise": 9206,
      "Ġtraversing": 9207,
      "Ġ31": 9208,
      "Optimization": 9209,
      "Wait": 9210,
      "Ġtitles": 9211,
      "uplicates": 9212,
      "400": 9213,
      "Ġcapital": 9214,
      "Yes": 9215,
      "Ġball": 9216,
      "::{": 9217,
      "direction": 9218,
      "Call": 9219,
      "ĠRegular": 9220,
      "Ġsublists": 9221,
      "æĪĳä»¬åı¯ä»¥ä½¿çĶ¨": 9222,
      "assen": 9223,
      "è¯¦ç»Ĩ": 9224,
      "lru": 9225,
      "Ġscratch": 9226,
      "Spec": 9227,
      "yzer": 9228,
      "åĪłéĻ¤": 9229,
      "Ġserves": 9230,
      "VER": 9231,
      "osite": 9232,
      "Executor": 9233,
      "Comb": 9234,
      "Pairs": 9235,
      "è½¬æį¢ä¸º": 9236,
[...]
